{
  "0": "\u0000",
  "1": "\u0001",
  "2": "\u0002",
  "3": "\u0003",
  "4": "\u0004",
  "5": "\u0005",
  "6": "\u0006",
  "7": "\u0007",
  "8": "\b",
  "9": "\t",
  "10": "\n",
  "11": "\u000b",
  "12": "\f",
  "13": "\r",
  "14": "\u000e",
  "15": "\u000f",
  "16": "\u0010",
  "17": "\u0011",
  "18": "\u0012",
  "19": "\u0013",
  "20": "\u0014",
  "21": "\u0015",
  "22": "\u0016",
  "23": "\u0017",
  "24": "\u0018",
  "25": "\u0019",
  "26": "\u001a",
  "27": "\u001b",
  "28": "\u001c",
  "29": "\u001d",
  "30": "\u001e",
  "31": "\u001f",
  "32": " ",
  "33": "!",
  "34": "\"",
  "35": "#",
  "36": "$",
  "37": "%",
  "38": "&",
  "39": "'",
  "40": "(",
  "41": ")",
  "42": "*",
  "43": "+",
  "44": ",",
  "45": "-",
  "46": ".",
  "47": "/",
  "48": "0",
  "49": "1",
  "50": "2",
  "51": "3",
  "52": "4",
  "53": "5",
  "54": "6",
  "55": "7",
  "56": "8",
  "57": "9",
  "58": ":",
  "59": ";",
  "60": "<",
  "61": "=",
  "62": ">",
  "63": "?",
  "64": "@",
  "65": "A",
  "66": "B",
  "67": "C",
  "68": "D",
  "69": "E",
  "70": "F",
  "71": "G",
  "72": "H",
  "73": "I",
  "74": "J",
  "75": "K",
  "76": "L",
  "77": "M",
  "78": "N",
  "79": "O",
  "80": "P",
  "81": "Q",
  "82": "R",
  "83": "S",
  "84": "T",
  "85": "U",
  "86": "V",
  "87": "W",
  "88": "X",
  "89": "Y",
  "90": "Z",
  "91": "[",
  "92": "\\",
  "93": "]",
  "94": "^",
  "95": "_",
  "96": "`",
  "97": "a",
  "98": "b",
  "99": "c",
  "100": "d",
  "101": "e",
  "102": "f",
  "103": "g",
  "104": "h",
  "105": "i",
  "106": "j",
  "107": "k",
  "108": "l",
  "109": "m",
  "110": "n",
  "111": "o",
  "112": "p",
  "113": "q",
  "114": "r",
  "115": "s",
  "116": "t",
  "117": "u",
  "118": "v",
  "119": "w",
  "120": "x",
  "121": "y",
  "122": "z",
  "123": "{",
  "124": "|",
  "125": "}",
  "126": "~",
  "127": "\u007f",
  "128": "\u0080",
  "129": "\u0081",
  "130": "\u0082",
  "131": "\u0083",
  "132": "\u0084",
  "133": "\u0085",
  "134": "\u0086",
  "135": "\u0087",
  "136": "\u0088",
  "137": "\u0089",
  "138": "\u008a",
  "139": "\u008b",
  "140": "\u008c",
  "141": "\u008d",
  "142": "\u008e",
  "143": "\u008f",
  "144": "\u0090",
  "145": "\u0091",
  "146": "\u0092",
  "147": "\u0093",
  "148": "\u0094",
  "149": "\u0095",
  "150": "\u0096",
  "151": "\u0097",
  "152": "\u0098",
  "153": "\u0099",
  "154": "\u009a",
  "155": "\u009b",
  "156": "\u009c",
  "157": "\u009d",
  "158": "\u009e",
  "159": "\u009f",
  "160": "\u00a0",
  "161": "\u00a1",
  "162": "\u00a2",
  "163": "\u00a3",
  "164": "\u00a4",
  "165": "\u00a5",
  "166": "\u00a6",
  "167": "\u00a7",
  "168": "\u00a8",
  "169": "\u00a9",
  "170": "\u00aa",
  "171": "\u00ab",
  "172": "\u00ac",
  "173": "\u00ad",
  "174": "\u00ae",
  "175": "\u00af",
  "176": "\u00b0",
  "177": "\u00b1",
  "178": "\u00b2",
  "179": "\u00b3",
  "180": "\u00b4",
  "181": "\u00b5",
  "182": "\u00b6",
  "183": "\u00b7",
  "184": "\u00b8",
  "185": "\u00b9",
  "186": "\u00ba",
  "187": "\u00bb",
  "188": "\u00bc",
  "189": "\u00bd",
  "190": "\u00be",
  "191": "\u00bf",
  "192": "\u00c0",
  "193": "\u00c1",
  "194": "\u00c2",
  "195": "\u00c3",
  "196": "\u00c4",
  "197": "\u00c5",
  "198": "\u00c6",
  "199": "\u00c7",
  "200": "\u00c8",
  "201": "\u00c9",
  "202": "\u00ca",
  "203": "\u00cb",
  "204": "\u00cc",
  "205": "\u00cd",
  "206": "\u00ce",
  "207": "\u00cf",
  "208": "\u00d0",
  "209": "\u00d1",
  "210": "\u00d2",
  "211": "\u00d3",
  "212": "\u00d4",
  "213": "\u00d5",
  "214": "\u00d6",
  "215": "\u00d7",
  "216": "\u00d8",
  "217": "\u00d9",
  "218": "\u00da",
  "219": "\u00db",
  "220": "\u00dc",
  "221": "\u00dd",
  "222": "\u00de",
  "223": "\u00df",
  "224": "\u00e0",
  "225": "\u00e1",
  "226": "\u00e2",
  "227": "\u00e3",
  "228": "\u00e4",
  "229": "\u00e5",
  "230": "\u00e6",
  "231": "\u00e7",
  "232": "\u00e8",
  "233": "\u00e9",
  "234": "\u00ea",
  "235": "\u00eb",
  "236": "\u00ec",
  "237": "\u00ed",
  "238": "\u00ee",
  "239": "\u00ef",
  "240": "\u00f0",
  "241": "\u00f1",
  "242": "\u00f2",
  "243": "\u00f3",
  "244": "\u00f4",
  "245": "\u00f5",
  "246": "\u00f6",
  "247": "\u00f7",
  "248": "\u00f8",
  "249": "\u00f9",
  "250": "\u00fa",
  "251": "\u00fb",
  "252": "\u00fc",
  "253": "\u00fd",
  "254": "\u00fe",
  "255": "\u00ff",
  "256": "[CLS]",
  "257": "[SEP]",
  "258": "[MASK]",
  "259": "[PAD]",
  "260": "e ",
  "261": "s ",
  "262": "th",
  "263": "an",
  "264": "d ",
  "265": "in",
  "266": "er",
  "267": "t ",
  "268": ".\n",
  "269": "the ",
  "270": ", ",
  "271": "on",
  "272": "ar",
  "273": "y ",
  "274": "or",
  "275": "al",
  "276": "en",
  "277": "of",
  "278": "of ",
  "279": "o ",
  "280": "and ",
  "281": "ti",
  "282": "is ",
  "283": "ed ",
  "284": "es",
  "285": "a ",
  "286": "om",
  "287": "ou",
  "288": "in ",
  "289": "es ",
  "290": "er ",
  "291": "ing",
  "292": "ic",
  "293": "st",
  "294": "to ",
  "295": "Th",
  "296": "as ",
  "297": "re",
  "298": "at",
  "299": ".\nTh",
  "300": "it",
  "301": "an ",
  "302": "on ",
  "303": "ing ",
  "304": "or ",
  "305": "li",
  "306": "pl",
  "307": "us",
  "308": "el",
  "309": "h ",
  "310": "ec",
  "311": "am",
  "312": "all",
  "313": "ro",
  "314": "at ",
  "315": "are ",
  "316": "di",
  "317": "al ",
  "318": "n ",
  "319": "il",
  "320": "ma",
  "321": "en ",
  "322": "ac",
  "323": "ol",
  "324": "em",
  "325": "ur",
  "326": "ow",
  "327": "wh",
  "328": "th ",
  "329": "is",
  "330": ".\nI",
  "331": ".\nThe ",
  "332": "os",
  "333": "of the ",
  "334": "ve ",
  "335": "as",
  "336": "ir",
  "337": "ul",
  "338": "ha",
  "339": "tr",
  "340": "pe",
  "341": "ver",
  "342": "ere ",
  "343": "oun",
  "344": "that ",
  "345": "the",
  "346": "ati",
  "347": "s, ",
  "348": "un",
  "349": "ch",
  "350": "et",
  "351": "ent",
  "352": "um",
  "353": "ear",
  "354": "com",
  "355": "k ",
  "356": "fr",
  "357": "ent ",
  "358": "e, ",
  "359": "id",
  "360": "im",
  "361": "ap",
  "362": "in the ",
  "363": "om ",
  "364": "ple ",
  "365": "for ",
  "366": "ab",
  "367": "ig",
  "368": "it ",
  "369": ".\nA",
  "370": "ex",
  "371": "was ",
  "372": "ag",
  "373": "ther ",
  "374": ", and ",
  "375": "wor",
  "376": "op",
  "377": "be ",
  "378": "from ",
  "379": "ed",
  "380": "by ",
  "381": "any ",
  "382": "ot ",
  "383": "for",
  "384": "uc",
  "385": "peo",
  "386": "be",
  "387": "wi",
  "388": "ly ",
  "389": "ic ",
  "390": "oo",
  "391": "pro",
  "392": "ter",
  "393": "cl",
  "394": "so ",
  "395": "s.\n",
  "396": "have ",
  "397": ".\nIn ",
  "398": "\" ",
  "399": "ts ",
  "400": "people ",
  "401": "ad",
  "402": "le",
  "403": "qu",
  "404": "00",
  "405": "str",
  "406": "with ",
  "407": "ay",
  "408": "ang",
  "409": "l ",
  "410": "se",
  "411": "ke ",
  "412": "con",
  "413": "\n\n",
  "414": "me",
  "415": "ome ",
  "416": "sh",
  "417": "not ",
  "418": "sp",
  "419": "can ",
  "420": "has ",
  "421": "ame ",
  "422": "ay ",
  "423": "one ",
  "424": "tic",
  "425": ".\nIt ",
  "426": ") ",
  "427": "year",
  "428": "w ",
  "429": "other ",
  "430": "ich ",
  "431": "bu",
  "432": "ers ",
  "433": "ce ",
  "434": "use ",
  "435": "per",
  "436": "which ",
  "437": "est ",
  "438": "they ",
  "439": "and",
  "440": "par",
  "441": "ons ",
  "442": "'s ",
  "443": "ci",
  "444": "also ",
  "445": "call",
  "446": "the s",
  "447": "out ",
  "448": "ep",
  "449": "ost ",
  "450": "od",
  "451": "ne",
  "452": "gr",
  "453": "ir ",
  "454": "ud",
  "455": "si",
  "456": "called ",
  "457": "many ",
  "458": "ri",
  "459": "bl",
  "460": "ov",
  "461": "coun",
  "462": "ff",
  "463": "all ",
  "464": "es, ",
  "465": "ar ",
  "466": "were ",
  "467": "bec",
  "468": "gi",
  "469": "ter ",
  "470": "19",
  "471": "is a ",
  "472": "ev",
  "473": ".\nS",
  "474": "ally ",
  "475": "is the ",
  "476": "up",
  "477": "y, ",
  "478": "ese ",
  "479": "ow ",
  "480": "ed to ",
  "481": "pr",
  "482": ".\nM",
  "483": "countr",
  "484": "s and ",
  "485": "tim",
  "486": "we",
  "487": "br",
  "488": "ld ",
  "489": "gh",
  "490": "e of ",
  "491": "ph",
  "492": "form",
  "493": "ies ",
  "494": "s of ",
  "495": "igh",
  "496": "Ch",
  "497": "ity ",
  "498": "st ",
  "499": "ans ",
  "500": "our",
  "501": "ber ",
  "502": ".\nThis ",
  "503": "uch ",
  "504": "arg",
  "505": "ation",
  "506": "ta",
  "507": "ation ",
  "508": "tion",
  "509": "num",
  "510": "their ",
  "511": "diff",
  "512": "most ",
  "513": "ther",
  "514": "ore ",
  "515": "its ",
  "516": "ong",
  "517": "ey ",
  "518": "og",
  "519": ", the ",
  "520": "ist",
  "521": "oc",
  "522": "ed by ",
  "523": "ot",
  "524": "ate ",
  "525": "mon",
  "526": "tion ",
  "527": "over",
  "528": "own ",
  "529": "but ",
  "530": "le ",
  "531": "pu",
  "532": "s are ",
  "533": "about ",
  "534": "differ",
  "535": " and ",
  "536": "very ",
  "537": "mad",
  "538": "ome",
  "539": "ause ",
  "540": "this ",
  "541": "rit",
  "542": "ng",
  "543": "like ",
  "544": "ali",
  "545": "e.\n",
  "546": "ound ",
  "547": "0 ",
  "548": "to the ",
  "549": "more ",
  "550": "ary ",
  "551": "em ",
  "552": "et ",
  "553": "ten ",
  "554": "fir",
  "555": "ed in ",
  "556": "f ",
  "557": "end",
  "558": "kn",
  "559": "land",
  "560": "ob",
  "561": "larg",
  "562": "ra",
  "563": "ea",
  "564": "Un",
  "565": "tw",
  "566": "land ",
  "567": "comm",
  "568": "por",
  "569": "ous ",
  "570": "some ",
  "571": "ell",
  "572": "different ",
  "573": "ere are ",
  "574": "tur",
  "575": "than ",
  "576": "who ",
  "577": "enc",
  "578": ".\nThey ",
  "579": "plan",
  "580": "mer",
  "581": "exam",
  "582": "made ",
  "583": "Fr",
  "584": "incl",
  "585": "yst",
  "586": "ew ",
  "587": "ub",
  "588": "ustr",
  "589": "ind",
  "590": "includ",
  "591": "ould ",
  "592": "first ",
  "593": "such ",
  "594": "thing",
  "595": "Eng",
  "596": "anc",
  "597": "ai",
  "598": "t of ",
  "599": "ing the ",
  "600": "angu",
  "601": ".\nH",
  "602": ": ",
  "603": "la",
  "604": "fin",
  "605": "sm",
  "606": "res",
  "607": "anguag",
  "608": "mus",
  "609": ".\nO",
  "610": "such as ",
  "611": ".\nB",
  "612": "ain",
  "613": "languag",
  "614": "star",
  "615": "from the ",
  "616": "because ",
  "617": "vi",
  "618": "mil",
  "619": "meric",
  "620": "20",
  "621": "In",
  "622": "ical ",
  "623": "rec",
  "624": "can be ",
  "625": "ted ",
  "626": "ant ",
  "627": "es of ",
  "628": "de",
  "629": "gh ",
  "630": ".\nA ",
  "631": "sh ",
  "632": "Americ",
  "633": "po",
  "634": "s.\nThe ",
  "635": "and the ",
  "636": "pos",
  "637": "only ",
  "638": " of ",
  "639": "the same ",
  "640": "ut",
  "641": "cont",
  "642": "ough ",
  "643": "cent",
  "644": "St",
  "645": "ber",
  "646": "a, ",
  "647": "sc",
  "648": "ast ",
  "649": "ast",
  "650": "18",
  "651": "when ",
  "652": "writ",
  "653": "do ",
  "654": "Engli",
  "655": "Ear",
  "656": "on the ",
  "657": "bet",
  "658": "und",
  "659": "Eu",
  "660": "had ",
  "661": "ari",
  "662": "wat",
  "663": "pers",
  "664": "these ",
  "665": "king ",
  "666": "two ",
  "667": "some",
  "668": "est",
  "669": "el ",
  "670": "ited ",
  "671": "make ",
  "672": "ds ",
  "673": "atur",
  "674": "fl",
  "675": "yp",
  "676": "col",
  "677": ".\nF",
  "678": "used ",
  "679": "exampl",
  "680": ".\nIt is ",
  "681": "Euro",
  "682": "into ",
  "683": "es and ",
  "684": "ance ",
  "685": "e and ",
  "686": "ually ",
  "687": "fi",
  "688": "chang",
  "689": "may ",
  "690": "it is ",
  "691": "been ",
  "692": "cre",
  "693": "tic ",
  "694": "m ",
  "695": "sid",
  "696": "ial ",
  "697": "bo",
  "698": "ence ",
  "699": "onom",
  "700": "ld",
  "701": "times ",
  "702": "ong ",
  "703": "ight ",
  "704": ".\nSome ",
  "705": "formul",
  "706": "fter ",
  "707": "ug",
  "708": "he",
  "709": "overn",
  "710": "number ",
  "711": "car",
  "712": "ill ",
  "713": "ord",
  "714": "ood ",
  "715": "Gre",
  "716": "so",
  "717": "pop",
  "718": "New ",
  "719": "ough",
  "720": "mo",
  "721": "way",
  "722": "e is ",
  "723": "liv",
  "724": "elec",
  "725": ".\nThere are ",
  "726": "ip",
  "727": "es are ",
  "728": "enti",
  "729": "ess",
  "730": "), ",
  "731": "plac",
  "732": "syst",
  "733": "where ",
  "734": "ed the ",
  "735": "world",
  "736": "ment ",
  "737": "formula",
  "738": "compu",
  "739": "ener",
  "740": "formula_",
  "741": "to",
  "742": "us ",
  "743": "how ",
  "744": "hy",
  "745": "way ",
  "746": "ch ",
  "747": "do",
  "748": "ond",
  "749": "cap",
  "750": "known ",
  "751": "popul",
  "752": "ever",
  "753": "oup",
  "754": "olog",
  "755": "over ",
  "756": "av",
  "757": "ach ",
  "758": "ely ",
  "759": "ebr",
  "760": "ect",
  "761": "nam",
  "762": "e to ",
  "763": "e.\nThe ",
  "764": "govern",
  "765": "ak",
  "766": "ity",
  "767": "common ",
  "768": "word ",
  "769": "ish ",
  "770": "als ",
  "771": "rul",
  "772": "spec",
  "773": "es.\n",
  "774": "United ",
  "775": "often ",
  "776": "ess ",
  "777": ":\n\n",
  "778": "ser",
  "779": "1 ",
  "780": "mos",
  "781": "pre",
  "782": "low",
  "783": "port",
  "784": "Austr",
  "785": "years ",
  "786": "e the ",
  "787": "fe",
  "788": "eo",
  "789": "day ",
  "790": "new ",
  "791": "ll ",
  "792": "are",
  "793": "mov",
  "794": "lim",
  "795": "will ",
  "796": "Mar",
  "797": "\u00e2\u0080",
  "798": "cul",
  "799": "group",
  "800": "there ",
  "801": "buil",
  "802": "atom",
  "803": "ek ",
  "804": "example, ",
  "805": "ember ",
  "806": "able ",
  "807": "Chin",
  "808": "ment",
  "809": "ated ",
  "810": "duc",
  "811": "in a ",
  "812": "sti",
  "813": ".\nW",
  "814": "Sp",
  "815": "centur",
  "816": "things ",
  "817": "ound",
  "818": "mar",
  "819": "became ",
  "820": "usually ",
  "821": "5 ",
  "822": "inter",
  "823": "Ar",
  "824": "Is",
  "825": "Stat",
  "826": ", which ",
  "827": "ween ",
  "828": "English ",
  "829": ".\nC",
  "830": "cur",
  "831": ",00",
  "832": ", but ",
  "833": "ine ",
  "834": "s, and ",
  "835": "our ",
  "836": "s to ",
  "837": "hum",
  "838": "hap",
  "839": "ree ",
  "840": "\u00c2\u00a0",
  "841": ".\nIn the ",
  "842": "a s",
  "843": "bas",
  "844": "between ",
  "845": "ative ",
  "846": "fam",
  "847": "il ",
  "848": "Europe",
  "849": "The ",
  "850": "for the ",
  "851": "tions ",
  "852": "ook ",
  "853": "person ",
  "854": "up ",
  "855": "big",
  "856": "ish",
  "857": "ust ",
  "858": "ell ",
  "859": "lion ",
  "860": "i ",
  "861": "200",
  "862": "fac",
  "863": "largest ",
  "864": "des",
  "865": "d of ",
  "866": "um ",
  "867": "means ",
  "868": "them ",
  "869": "man",
  "870": "city ",
  "871": "fic",
  "872": "row",
  "873": "ept",
  "874": "ations ",
  "875": "iz",
  "876": "ks ",
  "877": "ement",
  "878": "typ",
  "879": "; ",
  "880": "ill",
  "881": "met",
  "882": "uary ",
  "883": "ful",
  "884": "dr",
  "885": "after ",
  "886": "ens",
  "887": "anim",
  "888": "import",
  "889": "nor",
  "890": "Nor",
  "891": ".\nD",
  "892": "each ",
  "893": "y of ",
  "894": "org",
  "895": ".\nP",
  "896": "ose ",
  "897": "would ",
  "898": "electr",
  "899": "cr",
  "900": "ure",
  "901": ".\nThese ",
  "902": "war",
  "903": "country ",
  "904": "ties ",
  "905": "Indi",
  "906": "a l",
  "907": "uni",
  "908": "ous",
  "909": ".\nMany ",
  "910": "ern ",
  "911": "Rom",
  "912": "pow",
  "913": "spe",
  "914": "ax",
  "915": "dec",
  "916": "capit",
  "917": "around ",
  "918": "e of the ",
  "919": "is called ",
  "920": "ym",
  "921": "stud",
  "922": "Australi",
  "923": "Sou",
  "924": "ia ",
  "925": "countries ",
  "926": "bers ",
  "927": "day",
  "928": "int",
  "929": "ational ",
  "930": "co",
  "931": "name ",
  "932": "if ",
  "933": "United Stat",
  "934": "to be ",
  "935": "chem",
  "936": ", or ",
  "937": "Jap",
  "938": "ear ",
  "939": "ris",
  "940": "much ",
  "941": "reli",
  "942": "sci",
  "943": "produc",
  "944": "vid",
  "945": "sim",
  "946": "equ",
  "947": "e in ",
  "948": "live ",
  "949": "ain ",
  "950": "what ",
  "951": "or example, ",
  "952": "New Y",
  "953": "ism",
  "954": "hen ",
  "955": "ian ",
  "956": "thr",
  "957": ".\nN",
  "958": "he ",
  "959": "they are ",
  "960": "att",
  "961": "kes ",
  "962": "lat",
  "963": "vers",
  "964": "ass",
  "965": "th centur",
  "966": "important ",
  "967": ",000 ",
  "968": "s in ",
  "969": "sur",
  "970": "mas",
  "971": "can",
  "972": "fol",
  "973": "aph",
  "974": "them",
  "975": "ood",
  "976": "water ",
  "977": "serv",
  "978": "religi",
  "979": "es.\nThe ",
  "980": "mosqu",
  "981": "peopl",
  "982": "2 ",
  "983": "ant",
  "984": "New Yor",
  "985": "mean",
  "986": "thing ",
  "987": "gre",
  "988": "jec",
  "989": "tal",
  "990": "beg",
  "991": "old ",
  "992": "does ",
  "993": "min",
  "994": "as the ",
  "995": "au",
  "996": "pres",
  "997": "dro",
  "998": "matic",
  "999": "mod",
  "1000": "ought ",
  "1001": "befor",
  "1002": "no ",
  "1003": "as a ",
  "1004": "Earth ",
  "1005": "ad ",
  "1006": "eas",
  "1007": "iv",
  "1008": "with the ",
  "1009": "3 ",
  "1010": "inv",
  "1011": "has a ",
  "1012": "aw",
  "1013": "thern ",
  "1014": "ting ",
  "1015": "small ",
  "1016": "ok",
  "1017": "dev",
  "1018": "ack ",
  "1019": "stat",
  "1020": "od ",
  "1021": "e, and ",
  "1022": "Lond",
  "1023": "beli",
  "1024": "ship",
  "1025": "parts ",
  "1026": "thematic",
  "1027": "amm",
  "1028": "cal",
  "1029": "s.\nA",
  "1030": "that the ",
  "1031": "ets ",
  "1032": "living ",
  "1033": "part of ",
  "1034": "old",
  "1035": "lif",
  "1036": "used to ",
  "1037": "one of the ",
  "1038": "work ",
  "1039": "tain ",
  "1040": "gen ",
  "1041": "17",
  "1042": "government ",
  "1043": "on, ",
  "1044": "eg",
  "1045": "day of the ",
  "1046": "\", ",
  "1047": "hel",
  "1048": "y and ",
  "1049": "sts ",
  "1050": "am ",
  "1051": ". ",
  "1052": "week ",
  "1053": "years, ",
  "1054": "pi",
  "1055": "A ",
  "1056": ".\nE",
  "1057": "comp",
  "1058": "y is ",
  "1059": "mag",
  "1060": "istor",
  "1061": "his ",
  "1062": "million ",
  "1063": "ligh",
  "1064": "on the same ",
  "1065": "get ",
  "1066": "written ",
  "1067": "Earth",
  "1068": "bre",
  "1069": "large ",
  "1070": "ubl",
  "1071": "gal",
  "1072": "on the same day of the ",
  "1073": "eople ",
  "1074": "gen",
  "1075": "er, ",
  "1076": "s.\nM",
  "1077": "16",
  "1078": "- ",
  "1079": "ing, ",
  "1080": "found ",
  "1081": "work",
  "1082": "thin",
  "1083": "ke",
  "1084": "sa",
  "1085": "contin",
  "1086": ".\nT",
  "1087": "astr",
  "1088": "on the same day of the week ",
  "1089": "other",
  "1090": "act",
  "1091": "Chris",
  "1092": "arch",
  "1093": "disc",
  "1094": ", and the ",
  "1095": "ince ",
  "1096": "une ",
  "1097": "computer",
  "1098": "on the same day of the week as ",
  "1099": "ap ",
  "1100": "t of the ",
  "1101": "ox",
  "1102": "owever",
  "1103": "tive ",
  "1104": "at the ",
  "1105": "% ",
  "1106": "Uni",
  "1107": "Christi",
  "1108": "sel",
  "1109": "a c",
  "1110": "tog",
  "1111": "ach",
  "1112": ".\nL",
  "1113": "bod",
  "1114": "system ",
  "1115": "follow",
  "1116": "ond ",
  "1117": "number of ",
  "1118": "pec",
  "1119": "toge",
  "1120": "Ger",
  "1121": "Oc",
  "1122": "tiv",
  "1123": " (",
  "1124": "t, ",
  "1125": "tre",
  "1126": "natur",
  "1127": "arm",
  "1128": "numbers ",
  "1129": "ilos",
  "1130": "ilosop",
  "1131": "does not ",
  "1132": "was the ",
  "1133": "ia",
  "1134": "there are ",
  "1135": "organ",
  "1136": "ite ",
  "1137": "vis",
  "1138": ".\nMost ",
  "1139": "histor",
  "1140": "number",
  "1141": "ies",
  "1142": "comes ",
  "1143": "sub",
  "1144": "still ",
  "1145": "ile ",
  "1146": "do not ",
  "1147": "time ",
  "1148": "ik",
  "1149": "ins ",
  "1150": "peri",
  "1151": "owever, ",
  "1152": "ca",
  "1153": "soci",
  "1154": "ew",
  "1155": "lin",
  "1156": "we ",
  "1157": "es in ",
  "1158": "mathematic",
  "1159": "eng",
  "1160": "own",
  "1161": "econom",
  "1162": "Jup",
  "1163": "Jupit",
  "1164": "before ",
  "1165": "world ",
  "1166": "small",
  "1167": "ue ",
  "1168": "ans",
  "1169": "music ",
  "1170": "har",
  "1171": "Mus",
  "1172": "entr",
  "1173": "sometimes ",
  "1174": "ven ",
  "1175": "capital ",
  "1176": "through ",
  "1177": "id ",
  "1178": "bor",
  "1179": "in 19",
  "1180": "sol",
  "1181": "compl",
  "1182": "New York ",
  "1183": "fgh",
  "1184": "divid",
  "1185": "then ",
  "1186": "probl",
  "1187": "contro",
  "1188": "Fin",
  "1189": "a and ",
  "1190": "Cub",
  "1191": "pol",
  "1192": "vari",
  "1193": "ide",
  "1194": "Com",
  "1195": "American ",
  "1196": "grow",
  "1197": "an, ",
  "1198": "system",
  "1199": "ways ",
  "1200": "using ",
  "1201": "offic",
  "1202": "ah",
  "1203": "Jan",
  "1204": "tical ",
  "1205": "An",
  "1206": "prot",
  "1207": "aid ",
  "1208": "early ",
  "1209": "bigg",
  "1210": "ook",
  "1211": "10",
  "1212": "makes ",
  "1213": "dic",
  "1214": "acc",
  "1215": "s that ",
  "1216": "could ",
  "1217": "ei",
  "1218": "ed by the ",
  "1219": "mat",
  "1220": "age ",
  "1221": "es the ",
  "1222": "South ",
  "1223": "ly",
  "1224": "ust",
  "1225": "to make ",
  "1226": "Al",
  "1227": "every ",
  "1228": "seas",
  "1229": "a f",
  "1230": "leg",
  "1231": "have been ",
  "1232": "three ",
  "1233": "country",
  "1234": "cor",
  "1235": "galax",
  "1236": "by the ",
  "1237": "human ",
  "1238": "ating ",
  "1239": "kin",
  "1240": "ement ",
  "1241": "ath",
  "1242": "computer ",
  "1243": ") and ",
  "1244": "with",
  "1245": "include ",
  "1246": ".\nThis is ",
  "1247": "ed, ",
  "1248": "leap ",
  "1249": "end ",
  "1250": ".\nWhen ",
  "1251": ".\nThere ",
  "1252": "gener",
  "1253": "4 ",
  "1254": "ut ",
  "1255": "ick",
  "1256": "regi",
  "1257": "philosop",
  "1258": "Roman ",
  "1259": "ran",
  "1260": "now ",
  "1261": "' ",
  "1262": "es (",
  "1263": "ially ",
  "1264": "sec",
  "1265": "again",
  "1266": "being ",
  "1267": "riv",
  "1268": "su",
  "1269": ".\nOn",
  "1270": "main ",
  "1271": "both ",
  "1272": "Isl",
  "1273": "uring the ",
  "1274": "cho",
  "1275": "law",
  "1276": "ator",
  "1277": "out",
  "1278": "ycl",
  "1279": "fer",
  "1280": "let",
  "1281": "bol",
  "1282": "national ",
  "1283": "another ",
  "1284": "spac",
  "1285": "s.\nS",
  "1286": "of a ",
  "1287": "epend",
  "1288": "island",
  "1289": "ros",
  "1290": "high",
  "1291": "France ",
  "1292": "energ",
  "1293": "awai",
  "1294": "Afgh",
  "1295": "Rep",
  "1296": "ning ",
  "1297": "devel",
  "1298": "element",
  "1299": "did ",
  "1300": "ist ",
  "1301": "Wor",
  "1302": "er and ",
  "1303": "orb",
  "1304": "ents ",
  "1305": "201",
  "1306": "ies, ",
  "1307": "even ",
  "1308": "cri",
  "1309": "under",
  "1310": "Republ",
  "1311": "called \"",
  "1312": "is also ",
  "1313": "hydro",
  "1314": "go ",
  "1315": "ble ",
  "1316": "e (",
  "1317": "famous ",
  "1318": "less ",
  "1319": "food ",
  "1320": "pher",
  "1321": "ful ",
  "1322": "roc",
  "1323": "dist",
  "1324": "tri",
  "1325": "progr",
  "1326": "more than ",
  "1327": "area ",
  "1328": "have a ",
  "1329": "tu",
  "1330": "pen",
  "1331": "spor",
  "1332": "medi",
  "1333": "cultur",
  "1334": "just ",
  "1335": "said ",
  "1336": "\" (",
  "1337": "came ",
  "1338": "help",
  "1339": "words ",
  "1340": "mi",
  "1341": "\u00e2\u0080\u0093",
  "1342": "lo",
  "1343": "water",
  "1344": ".\nIf ",
  "1345": "mul",
  "1346": "dem",
  "1347": ".\nFor example, ",
  "1348": "00 ",
  "1349": "the S",
  "1350": "year ",
  "1351": "always ",
  "1352": "say ",
  "1353": "act ",
  "1354": "discover",
  "1355": "develop",
  "1356": "e's ",
  "1357": "though ",
  "1358": "built ",
  "1359": "tl",
  "1360": "under ",
  "1361": "belie",
  "1362": "Hawai",
  "1363": "anist",
  "1364": "ey",
  "1365": "er than ",
  "1366": "poin",
  "1367": "lit",
  "1368": "Jul",
  "1369": "cient ",
  "1370": "sever",
  "1371": "ice ",
  "1372": "sion ",
  "1373": "fru",
  "1374": "inst",
  "1375": "nuc",
  "1376": "month ",
  "1377": "January ",
  "1378": "theor",
  "1379": "igin",
  "1380": "European ",
  "1381": "dis",
  "1382": "es, and ",
  "1383": "that is ",
  "1384": "bel",
  "1385": "vol",
  "1386": "has been ",
  "1387": "long",
  "1388": "ten",
  "1389": "oday",
  "1390": ").\nThe ",
  "1391": "build",
  "1392": "ack",
  "1393": "planet",
  "1394": "astronom",
  "1395": "Febr",
  "1396": "ing to ",
  "1397": "was a ",
  "1398": "problem",
  "1399": "several ",
  "1400": "til ",
  "1401": "commun",
  "1402": "ily ",
  "1403": "World ",
  "1404": "ual ",
  "1405": "modern ",
  "1406": "oper",
  "1407": "lear",
  "1408": "ocr",
  "1409": "s the ",
  "1410": "English",
  "1411": "God ",
  "1412": "s) ",
  "1413": "gl",
  "1414": "9 ",
  "1415": "air",
  "1416": "er to ",
  "1417": "prov",
  "1418": "tor",
  "1419": "if",
  "1420": "Em",
  "1421": "Japan",
  "1422": "imm",
  "1423": "ings ",
  "1424": "study ",
  "1425": "philosoph",
  "1426": "graph",
  "1427": "ign",
  "1428": "become ",
  "1429": "cop",
  "1430": "sup",
  "1431": "o, ",
  "1432": "ak ",
  "1433": "example ",
  "1434": "meas",
  "1435": "defin",
  "1436": "Nept",
  "1437": "natural ",
  "1438": "elgi",
  "1439": "previ",
  "1440": "come ",
  "1441": "vir",
  "1442": "thers ",
  "1443": "sou",
  "1444": "think ",
  "1445": "ight",
  "1446": "not",
  "1447": "ed into ",
  "1448": "8 ",
  "1449": "main",
  "1450": "hea",
  "1451": "maj",
  "1452": "riti",
  "1453": "island ",
  "1454": "used in ",
  "1455": ".\nIn",
  "1456": "per ",
  "1457": ".\nHe ",
  "1458": "go",
  "1459": "Par",
  "1460": "mem",
  "1461": "Can",
  "1462": "population ",
  "1463": "ean",
  "1464": "are the ",
  "1465": "es that ",
  "1466": "ank",
  "1467": "chur",
  "1468": "word",
  "1469": "may be ",
  "1470": "Republic ",
  "1471": "enmar",
  "1472": "February ",
  "1473": "e, the ",
  "1474": "ativ",
  "1475": "ion ",
  "1476": "of these ",
  "1477": "on-",
  "1478": "II",
  "1479": "ue",
  "1480": "un ",
  "1481": "u ",
  "1482": "good ",
  "1483": "bus",
  "1484": "in the world",
  "1485": "y to ",
  "1486": "appl",
  "1487": "proc",
  "1488": "ately ",
  "1489": "word \"",
  "1490": "add",
  "1491": "idd",
  "1492": "ech",
  "1493": "inc",
  "1494": "ritish ",
  "1495": "ou ",
  "1496": "6 ",
  "1497": "dom",
  "1498": "s (",
  "1499": "part of the ",
  "1500": "see ",
  "1501": "state ",
  "1502": "planet ",
  "1503": ".\nHowever, ",
  "1504": "x ",
  "1505": "els ",
  "1506": "stor",
  "1507": "ary",
  "1508": "ys",
  "1509": "expl",
  "1510": "objec",
  "1511": "called the ",
  "1512": "might ",
  "1513": "time",
  "1514": "Franc",
  "1515": "bi",
  "1516": "t to ",
  "1517": "is not ",
  "1518": "ard",
  "1519": "until ",
  "1520": "oh",
  "1521": "against ",
  "1522": "British ",
  "1523": "popular ",
  "1524": "kind",
  "1525": "multi",
  "1526": "cer",
  "1527": "kill",
  "1528": "ts of ",
  "1529": "previous ",
  "1530": "Lat",
  "1531": "meaning ",
  "1532": ".\nAn",
  "1533": "ity, ",
  "1534": "named ",
  "1535": "BC",
  "1536": "well ",
  "1537": "cas",
  "1538": "ide ",
  "1539": ".\nIn 19",
  "1540": "Span",
  "1541": "citi",
  "1542": "biggest ",
  "1543": "form ",
  "1544": "men",
  "1545": "ular ",
  "1546": "al, ",
  "1547": "music",
  "1548": "Islam",
  "1549": "ymbol",
  "1550": "Great ",
  "1551": "posi",
  "1552": "together ",
  "1553": "uring ",
  "1554": "rot",
  "1555": "money ",
  "1556": "s.\nO",
  "1557": "ecause ",
  "1558": "this",
  "1559": "London ",
  "1560": "olar ",
  "1561": "month",
  "1562": "dition",
  "1563": "\"\n",
  "1564": "forma",
  "1565": "Europ",
  "1566": "e\" ",
  "1567": "Ital",
  "1568": "uses ",
  "1569": "flu",
  "1570": "did not ",
  "1571": "ann",
  "1572": "ave ",
  "1573": "cep",
  "1574": "dea",
  "1575": "fish ",
  "1576": "direc",
  "1577": "City ",
  "1578": "descri",
  "1579": "istr",
  "1580": "King",
  "1581": "Ire",
  "1582": "Dec",
  "1583": "following ",
  "1584": "tern ",
  "1585": "allow",
  "1586": "all the ",
  "1587": "air ",
  "1588": "fric",
  "1589": "az",
  "1590": "life ",
  "1591": "ime ",
  "1592": "tel",
  "1593": "ench ",
  "1594": "must ",
  "1595": "top",
  "1596": "cha",
  "1597": "poli",
  "1598": "special ",
  "1599": "person",
  "1600": "China ",
  "1601": "mol",
  "1602": "Afghanist",
  "1603": "15",
  "1604": ".\nPeople ",
  "1605": "ates ",
  "1606": "amoun",
  "1607": "clos",
  "1608": "espec",
  "1609": "lic",
  "1610": "mamm",
  "1611": "tain",
  "1612": "jo",
  "1613": "cell",
  "1614": ".\nG",
  "1615": "tem",
  "1616": "Belgi",
  "1617": "July ",
  "1618": "including ",
  "1619": "show",
  "1620": "Aug",
  "1621": "find ",
  "1622": "gyp",
  "1623": "industr",
  "1624": "s, the ",
  "1625": "ion",
  "1626": "since ",
  "1627": "es were ",
  "1628": "man ",
  "1629": "French ",
  "1630": "animals ",
  "1631": "struc",
  "1632": "red ",
  "1633": "separ",
  "1634": "th and ",
  "1635": "tra",
  "1636": "ves ",
  "1637": "four ",
  "1638": "those ",
  "1639": "s were ",
  "1640": "tion of ",
  "1641": "ass ",
  "1642": "fun",
  "1643": "\n\nA ",
  "1644": ", a ",
  "1645": "Afric",
  "1646": ".\nThey are ",
  "1647": "er of ",
  "1648": "chemical ",
  "1649": "edg",
  "1650": "stly ",
  "1651": "stitu",
  "1652": "language ",
  "1653": "sk",
  "1654": "ercur",
  "1655": "Greek ",
  "1656": "rang",
  "1657": "simil",
  "1658": "especially ",
  "1659": "lead",
  "1660": "7 ",
  "1661": "ed as ",
  "1662": "shor",
  "1663": "ed on ",
  "1664": "the first ",
  "1665": "Syst",
  "1666": "rop",
  "1667": "farm",
  "1668": "can also ",
  "1669": "types of ",
  "1670": "need",
  "1671": "ty",
  "1672": "bur",
  "1673": "s in the ",
  "1674": "spell",
  "1675": "making ",
  "1676": "last ",
  "1677": "emis",
  "1678": ".\nIt was ",
  "1679": "arti",
  "1680": "people who ",
  "1681": "a is ",
  "1682": ".\nAl",
  "1683": "power",
  "1684": "1, ",
  "1685": "aries ",
  "1686": "exist",
  "1687": "libr",
  "1688": "estern ",
  "1689": "ed to the ",
  "1690": "rel",
  "1691": "yl",
  "1692": "carb",
  "1693": "keep",
  "1694": "cities ",
  "1695": "North ",
  "1696": "Ang",
  "1697": ".\nAfter ",
  "1698": "with a ",
  "1699": "insid",
  "1700": "stand",
  "1701": "government",
  "1702": "Cath",
  "1703": "hol",
  "1704": "oli",
  "1705": "abl",
  "1706": "city",
  "1707": "sum",
  "1708": ".\"\n",
  "1709": "someone ",
  "1710": "publ",
  "1711": "te",
  "1712": "shap",
  "1713": "ail",
  "1714": "without ",
  "1715": "Pr",
  "1716": "s.\nF",
  "1717": "animal",
  "1718": "ot of ",
  "1719": "her",
  "1720": "stu",
  "1721": "should ",
  "1722": "Japan ",
  "1723": "Li",
  "1724": "while ",
  "1725": "acter",
  "1726": "long ",
  "1727": "known as ",
  "1728": "phys",
  "1729": "ques",
  "1730": "happen",
  "1731": "Asi",
  "1732": "norm",
  "1733": ".\nAll ",
  "1734": "ometr",
  "1735": "yn",
  "1736": "\" and ",
  "1737": "\".\nThe ",
  "1738": "atmos",
  "1739": "cannot ",
  "1740": "hydrogen ",
  "1741": "War ",
  "1742": "take ",
  "1743": "reas",
  "1744": "ver ",
  "1745": "s.\nIn ",
  "1746": "play",
  "1747": "row ",
  "1748": "which is ",
  "1749": "s: ",
  "1750": "any",
  "1751": "mostly ",
  "1752": "thought ",
  "1753": "fish",
  "1754": "stop",
  "1755": "pir",
  "1756": "believe ",
  "1757": "kinds of ",
  "1758": "church",
  "1759": "univers",
  "1760": "light ",
  "1761": "ology ",
  "1762": "Denmar",
  "1763": "pray",
  "1764": "tober ",
  "1765": "phere ",
  "1766": "e.\nIn ",
  "1767": "art ",
  "1768": "kind of ",
  "1769": "Re",
  "1770": ".\nOther ",
  "1771": "alg",
  "1772": "ants ",
  "1773": "bil",
  "1774": "lev",
  "1775": "oy",
  "1776": "mach",
  "1777": "eth",
  "1778": "took ",
  "1779": "started ",
  "1780": "val",
  "1781": "every",
  "1782": "calcul",
  "1783": "is an ",
  "1784": "ard ",
  "1785": "th of ",
  "1786": "big ",
  "1787": "s of the ",
  "1788": "hig",
  "1789": "net",
  "1790": "US",
  "1791": "cir",
  "1792": "down ",
  "1793": "observ",
  "1794": "ians ",
  "1795": "tali",
  "1796": "an and ",
  "1797": "art",
  "1798": "immedi",
  "1799": "econd ",
  "1800": "entral ",
  "1801": "began ",
  "1802": ".\n\"",
  "1803": ".\nAn ",
  "1804": "ty ",
  "1805": "repres",
  "1806": "Inter",
  "1807": "heal",
  "1808": "where the ",
  "1809": "many different ",
  "1810": "type of ",
  "1811": "icul",
  "1812": "14",
  "1813": "ritor",
  "1814": "ed and ",
  "1815": "appe",
  "1816": "edi",
  "1817": "hair ",
  "1818": "Jupiter ",
  "1819": "December ",
  "1820": "Latin ",
  "1821": "cel",
  "1822": ".\nFor ",
  "1823": "ect ",
  "1824": "danc",
  "1825": "In ",
  "1826": "s, such as ",
  "1827": "oxy",
  "1828": "clim",
  "1829": "Gal",
  "1830": "ine",
  "1831": "almost ",
  "1832": "him",
  "1833": "today",
  "1834": ".\nBecause ",
  "1835": "democr",
  "1836": "60",
  "1837": "now",
  "1838": ".\nSome",
  "1839": "United States ",
  "1840": "curr",
  "1841": "y.\nThe ",
  "1842": "ism ",
  "1843": "rup",
  "1844": "Nov",
  "1845": "years immedi",
  "1846": "years immediately ",
  "1847": "after the ",
  "1848": "ject",
  "1849": "others ",
  "1850": "ign ",
  "1851": "Egyp",
  "1852": "iddle ",
  "1853": "their own ",
  "1854": "Con",
  "1855": "give ",
  "1856": "enough ",
  "1857": "port ",
  "1858": "ft ",
  "1859": "ed a ",
  "1860": "es to ",
  "1861": "know",
  "1862": "set",
  "1863": "), and ",
  "1864": "ken ",
  "1865": "studi",
  "1866": "map",
  "1867": "wom",
  "1868": "body ",
  "1869": "radi",
  "1870": "oot",
  "1871": "dom ",
  "1872": "1.",
  "1873": "ope",
  "1874": "fiel",
  "1875": "olar Syst",
  "1876": "Itali",
  "1877": "common years, ",
  "1878": "Apr",
  "1879": "May ",
  "1880": "Northern ",
  "1881": "bro",
  "1882": "something ",
  "1883": "bir",
  "1884": "th century ",
  "1885": "put ",
  "1886": "similar ",
  "1887": "whe",
  "1888": "five ",
  "1889": "German",
  "1890": "cour",
  "1891": "gent",
  "1892": "over the ",
  "1893": "major ",
  "1894": "control",
  "1895": "s\"",
  "1896": "crim",
  "1897": "ed in the ",
  "1898": "non-",
  "1899": "Muslim",
  "1900": "s.\nThis ",
  "1901": "ussi",
  "1902": "ourc",
  "1903": "later ",
  "1904": "following year",
  "1905": "aut",
  "1906": "0.",
  "1907": "back ",
  "1908": "ed with ",
  "1909": "during the ",
  "1910": "place ",
  "1911": "scienti",
  "1912": "k, ",
  "1913": "2, ",
  "1914": "thous",
  "1915": "given ",
  "1916": "diseas",
  "1917": "requ",
  "1918": "loc",
  "1919": "around the ",
  "1920": "made of ",
  "1921": "ed that ",
  "1922": "lip",
  "1923": "moun",
  "1924": "busin",
  "1925": "\" is ",
  "1926": "Arab",
  "1927": "temper",
  "1928": "liqu",
  "1929": "ecul",
  "1930": "low ",
  "1931": "Republic of ",
  "1932": "- - ",
  "1933": "calend",
  "1934": "March ",
  "1935": "previous year",
  "1936": "a few ",
  "1937": "informa",
  "1938": "for a ",
  "1939": "Chinese ",
  "1940": "People ",
  "1941": "proper",
  "1942": "spok",
  "1943": "en, ",
  "1944": "line ",
  "1945": "too ",
  "1946": "term ",
  "1947": "efor",
  "1948": "possi",
  "1949": "sug",
  "1950": "parts of the ",
  "1951": "metr",
  "1952": "know ",
  "1953": "hous",
  "1954": "territor",
  "1955": "s or ",
  "1956": "a.\nThe ",
  "1957": "right ",
  "1958": "no",
  "1959": "group of ",
  "1960": "ean ",
  "1961": "ve",
  "1962": "consid",
  "1963": "thir",
  "1964": "piec",
  "1965": "ends ",
  "1966": "October ",
  "1967": "August ",
  "1968": "creat",
  "1969": ".\nAr",
  "1970": "a \"",
  "1971": "spir",
  "1972": "able to ",
  "1973": "well",
  "1974": "ancient ",
  "1975": "ge",
  "1976": "which are ",
  "1977": "La",
  "1978": ".\nIt has ",
  "1979": "seen ",
  "1980": "influ",
  "1981": "June ",
  "1982": "Brit",
  "1983": "ving ",
  "1984": "ex ",
  "1985": "time, ",
  "1986": "Canad",
  "1987": "wid",
  "1988": "s for ",
  "1989": "food",
  "1990": "show ",
  "1991": "ounc",
  "1992": "10 ",
  "1993": "real ",
  "1994": "Mon",
  "1995": "you ",
  "1996": "measur",
  "1997": "iki",
  "1998": ", and in ",
  "1999": "ers",
  "2000": "it was ",
  "2001": "into the ",
  "2002": "done ",
  "2003": "Per",
  "2004": "sion",
  "2005": "symbol",
  "2006": "gas",
  "2007": "there is ",
  "2008": "ying ",
  "2009": "years ag",
  "2010": "aster",
  "2011": "197",
  "2012": "ed to be ",
  "2013": "90",
  "2014": "meth",
  "2015": "hund",
  "2016": "live in ",
  "2017": "part",
  "2018": "Japanese ",
  "2019": "ky ",
  "2020": "quar",
  "2021": "sit",
  "2022": "noun",
  "2023": "years immediately before ",
  "2024": "s.\nThey ",
  "2025": "red",
  "2026": "archit",
  "2027": "look ",
  "2028": "parti",
  "2029": ".\nIt is the ",
  "2030": "atic",
  "2031": "s, but ",
  "2032": "better ",
  "2033": "plants ",
  "2034": "areas ",
  "2035": "resul",
  "2036": "When ",
  "2037": "complet",
  "2038": "ry ",
  "2039": "s.\nB",
  "2040": "ation of ",
  "2041": "ogi",
  "2042": "say",
  "2043": "used for ",
  "2044": "s.\nA ",
  "2045": "nucle",
  "2046": "Solar Syst",
  "2047": "web",
  "2048": "Sept",
  "2049": "each other",
  "2050": "starts ",
  "2051": "of the following year",
  "2052": "origin",
  "2053": ".\nThat ",
  "2054": "distance ",
  "2055": "es of the ",
  "2056": "ather",
  "2057": "mix",
  "2058": "viron",
  "2059": "neu",
  "2060": "evol",
  "2061": "official ",
  "2062": "God",
  "2063": "s.\nSome ",
  "2064": "black ",
  "2065": ".\nOne ",
  "2066": "hard ",
  "2067": "% of the ",
  "2068": "Island",
  "2069": "a person ",
  "2070": "king",
  "2071": "that they ",
  "2072": "tom",
  "2073": "ball",
  "2074": "ature ",
  "2075": "ost",
  "2076": "point ",
  "2077": "molecul",
  "2078": "lish",
  "2079": "ovi",
  "2080": "Mercur",
  "2081": "ally, ",
  "2082": "November ",
  "2083": "Christian",
  "2084": "ors ",
  "2085": "Le",
  "2086": "smaller ",
  "2087": "reg",
  "2088": ".\nIts ",
  "2089": "ash",
  "2090": "environ",
  "2091": "move ",
  "2092": "power ",
  "2093": "ics ",
  "2094": "ental ",
  "2095": "(the ",
  "2096": "s.\nH",
  "2097": "ed from ",
  "2098": "chil",
  "2099": "siz",
  "2100": "mater",
  "2101": "countries, ",
  "2102": "a lot of ",
  "2103": "scienc",
  "2104": "world's ",
  "2105": "away ",
  "2106": "high ",
  "2107": "ater ",
  "2108": "ref",
  "2109": "re ",
  "2110": "will be ",
  "2111": "neutr",
  "2112": "ever ",
  "2113": "netic ",
  "2114": "atoms ",
  "2115": "Neptun",
  "2116": "rupt",
  "2117": "metaph",
  "2118": "leap years, ",
  "2119": "eter",
  "2120": "are called ",
  "2121": "inn",
  "2122": "\" or ",
  "2123": "conn",
  "2124": "ture",
  "2125": "Min",
  "2126": "Earth's ",
  "2127": "ation, ",
  "2128": "change ",
  "2129": ":\n\n\n",
  "2130": "Joh",
  "2131": "194",
  "2132": "tle ",
  "2133": "ture ",
  "2134": "same ",
  "2135": "order ",
  "2136": "near ",
  "2137": "hal",
  "2138": "colon",
  "2139": "constitu",
  "2140": "excep",
  "2141": ") is ",
  "2142": "trad",
  "2143": "mis",
  "2144": "Br",
  "2145": "s, or ",
  "2146": "speak ",
  "2147": "that are ",
  "2148": "Man",
  "2149": "Kingdom ",
  "2150": "about the ",
  "2151": "ered ",
  "2152": "Russi",
  "2153": "ooks ",
  "2154": "dat",
  "2155": "of the previous year",
  "2156": "comes from the ",
  "2157": ".\nAt ",
  "2158": "use",
  "2159": "pain",
  "2160": "liz",
  "2161": "pic",
  "2162": "letter",
  "2163": "off",
  "2164": "round",
  "2165": ".\nAustr",
  "2166": "% of ",
  "2167": "like the ",
  "2168": "202",
  "2169": "oriz",
  "2170": "people in ",
  "2171": "period",
  "2172": "divided into ",
  "2173": "underst",
  "2174": "udd",
  "2175": "raz",
  "2176": "licens",
  "2177": "mosques ",
  "2178": "ent of ",
  "2179": "god",
  "2180": "on a ",
  "2181": "King ",
  "2182": " in ",
  "2183": "means \"",
  "2184": "Europe ",
  "2185": "Islamic ",
  "2186": "grap",
  "2187": "func",
  "2188": "ock",
  "2189": "read",
  "2190": "together",
  "2191": "ia, ",
  "2192": "vic",
  "2193": "law ",
  "2194": "start",
  "2195": "bin",
  "2196": "bab",
  "2197": "mor",
  "2198": "ies of ",
  "2199": "between the ",
  "2200": "ven",
  "2201": "dig",
  "2202": "milli",
  "2203": "independ",
  "2204": "liam",
  "2205": "ects ",
  "2206": "Sun",
  "2207": "America",
  "2208": "ick ",
  "2209": "ian",
  "2210": "instr",
  "2211": "instrum",
  "2212": "use the ",
  "2213": "ace ",
  "2214": "ologi",
  "2215": "would be ",
  "2216": "ek",
  "2217": "India ",
  "2218": "ankrupt",
  "2219": "emispher",
  "2220": "tran",
  "2221": ": \"",
  "2222": "50",
  "2223": "t is ",
  "2224": "person who ",
  "2225": "keep ",
  "2226": "ology",
  "2227": "London",
  "2228": "ather ",
  "2229": "arl",
  "2230": "war ",
  "2231": "3, ",
  "2232": "forc",
  "2233": "program",
  "2234": "ledg",
  "2235": "taken ",
  "2236": "ers and ",
  "2237": "grow ",
  "2238": "far",
  "2239": "control ",
  "2240": "depend",
  "2241": "\n\nThe ",
  "2242": "ific ",
  "2243": "ons of ",
  "2244": "I ",
  "2245": "people",
  "2246": "river",
  "2247": ".\nBut ",
  "2248": "y the ",
  "2249": "political ",
  "2250": "New York City ",
  "2251": "write ",
  "2252": ", they ",
  "2253": "cover",
  "2254": "Americans ",
  "2255": "cook",
  "2256": "charg",
  "2257": "highest ",
  "2258": "Mil",
  "2259": "outsid",
  "2260": "oviet ",
  "2261": "kil",
  "2262": "\u00c3\u00a9",
  "2263": "at, ",
  "2264": "pur",
  "2265": "term",
  "2266": "includes ",
  "2267": "action",
  "2268": "great ",
  "2269": "Mic",
  "2270": "algebr",
  "2271": "ution ",
  "2272": "for example, ",
  "2273": "billion ",
  "2274": "Spanish ",
  "2275": "chool",
  "2276": "found",
  "2277": "Que",
  "2278": "idea ",
  "2279": "ed.\nThe ",
  "2280": "cause ",
  "2281": "face ",
  "2282": "quick",
  "2283": "earli",
  "2284": "parts of ",
  "2285": "way to ",
  "2286": "spoken ",
  "2287": "ons are ",
  "2288": "describ",
  "2289": "oldest ",
  "2290": "tly ",
  "2291": "sof",
  "2292": "e-",
  "2293": "mic",
  "2294": "heli",
  "2295": "energy ",
  "2296": "event",
  "2297": ",000",
  "2298": "chae",
  "2299": "resid",
  "2300": "ankruptc",
  "2301": "Denmark ",
  "2302": "Finland ",
  "2303": "year, ",
  "2304": "exact",
  "2305": "win",
  "2306": "aff",
  "2307": "imag",
  "2308": "pha",
  "2309": "compos",
  "2310": "home ",
  "2311": "amount of ",
  "2312": "trans",
  "2313": "in the United Stat",
  "2314": "milit",
  "2315": "men ",
  "2316": "book",
  "2317": "hom",
  "2318": "e, or ",
  "2319": "Gr",
  "2320": ".\nOn ",
  "2321": "y, the ",
  "2322": "plant",
  "2323": "s)",
  "2324": "tains ",
  "2325": "plic",
  "2326": "simple ",
  "2327": "valu",
  "2328": "Australia ",
  "2329": "region",
  "2330": "native ",
  "2331": "monarch",
  "2332": "th, ",
  "2333": "cycl",
  "2334": "y was ",
  "2335": "set ",
  "2336": "Ne",
  "2337": "(\"",
  "2338": "partic",
  "2339": "gets ",
  "2340": "ise ",
  "2341": "diction",
  "2342": "speak",
  "2343": "bon",
  "2344": "orbit ",
  "2345": "Afghanistan ",
  "2346": "sil",
  "2347": "de ",
  "2348": "Christian ",
  "2349": "rist",
  "2350": "Mars ",
  "2351": "September ",
  "2352": "themsel",
  "2353": "as well ",
  "2354": ".\nThe first ",
  "2355": "in the world ",
  "2356": "Ag",
  "2357": ".\nThere are many ",
  "2358": "science ",
  "2359": "head",
  "2360": "such as the ",
  "2361": "dam",
  "2362": "ution",
  "2363": "Col",
  "2364": "World War ",
  "2365": "apple ",
  "2366": ".\nIt is also ",
  "2367": "believ",
  "2368": "ers, ",
  "2369": ".\nCom",
  "2370": "learn ",
  "2371": "objects ",
  "2372": "Gu",
  "2373": "member ",
  "2374": ", which is ",
  "2375": "eff",
  "2376": "Dut",
  "2377": "like a ",
  "2378": "aim",
  "2379": "acros",
  "2380": "religion",
  "2381": "cial ",
  "2382": "net ",
  "2383": "Dan",
  "2384": "instea",
  "2385": "Native ",
  "2386": "es or ",
  "2387": "lear ",
  "2388": "when the ",
  "2389": "Univers",
  "2390": "teles",
  "2391": "calendar",
  "2392": "celebr",
  "2393": "30",
  "2394": "agre",
  "2395": "press",
  "2396": "humans ",
  "2397": "created ",
  "2398": "e or ",
  "2399": "wind",
  "2400": "through the ",
  "2401": "abo",
  "2402": "Us",
  "2403": "carbon ",
  "2404": "create ",
  "2405": "ble",
  "2406": "mun",
  "2407": "went ",
  "2408": "atic ",
  "2409": "international ",
  "2410": "sing",
  "2411": "bar",
  "2412": "because the ",
  "2413": "s.\nMany ",
  "2414": "sal",
  "2415": "able",
  "2416": "s have ",
  "2417": "eat ",
  "2418": "difficul",
  "2419": "the most ",
  "2420": "ton",
  "2421": "tot",
  "2422": "east",
  "2423": "brought ",
  "2424": "in 18",
  "2425": "really ",
  "2426": "whol",
  "2427": ".\nSometimes ",
  "2428": "certain ",
  "2429": "pli",
  "2430": "gu",
  "2431": "color",
  "2432": "countries",
  "2433": "atom ",
  "2434": "Jupiter",
  "2435": "der",
  "2436": "z ",
  "2437": "..",
  "2438": "bot",
  "2439": "legal ",
  "2440": "\u00c2\u00b0",
  "2441": "Cuba ",
  "2442": "finish",
  "2443": "refer",
  "2444": "mark",
  "2445": "either ",
  "2446": "nex",
  "2447": "letter ",
  "2448": "a long ",
  "2449": "Ph",
  "2450": "basic ",
  "2451": "e\"",
  "2452": "enn",
  "2453": "mainly ",
  "2454": "ial",
  "2455": "oid",
  "2456": "Spain ",
  "2457": "once ",
  "2458": "ority ",
  "2459": "12",
  "2460": "machin",
  "2461": "aking ",
  "2462": "knowledg",
  "2463": "On",
  "2464": "ste",
  "2465": "ing and ",
  "2466": "some of the ",
  "2467": "ton ",
  "2468": "chemic",
  "2469": "dict",
  "2470": "west ",
  "2471": "this is ",
  "2472": "t in ",
  "2473": "read ",
  "2474": "want",
  "2475": "on the s",
  "2476": "lim ",
  "2477": " and the ",
  "2478": ".\nR",
  "2479": "form of ",
  "2480": "ned ",
  "2481": "color ",
  "2482": "simpl",
  "2483": "languages ",
  "2484": "100",
  "2485": "gentin",
  "2486": "is called the ",
  "2487": "versi",
  "2488": "ideas ",
  "2489": "level",
  "2490": "Cathol",
  "2491": "Solar System",
  "2492": "aur",
  "2493": "Soviet ",
  "2494": "dar",
  "2495": "infin",
  "2496": "hatt",
  "2497": "y, and ",
  "2498": "exactly ",
  "2499": "Western ",
  "2500": "sul",
  "2501": "ological ",
  "2502": "late ",
  "2503": " is ",
  "2504": "oxygen ",
  "2505": "various ",
  "2506": "deb",
  "2507": "climate ",
  "2508": "its own ",
  "2509": "Cap",
  "2510": "family ",
  "2511": "lor",
  "2512": "ands of ",
  "2513": ".\nAs ",
  "2514": "199",
  "2515": "sive ",
  "2516": "good",
  "2517": ".\nAustrali",
  "2518": "area",
  "2519": ".\nIt is a ",
  "2520": "land, ",
  "2521": "e) ",
  "2522": "because they ",
  "2523": "to a ",
  "2524": "aul",
  "2525": "wrot",
  "2526": "ball ",
  "2527": "pron",
  "2528": "mass ",
  "2529": "ing of ",
  "2530": "cat",
  "2531": "sugg",
  "2532": "dep",
  "2533": "ence of ",
  "2534": "Union ",
  "2535": "defini",
  "2536": "nuclear ",
  "2537": "fu",
  "2538": "least ",
  "2539": "ky W",
  "2540": "ext",
  "2541": "tro",
  "2542": "il and ",
  "2543": "Italian ",
  "2544": "process",
  "2545": "fast ",
  "2546": "pay ",
  "2547": "Ireland ",
  "2548": "oog",
  "2549": "leap year",
  "2550": "flow",
  "2551": "mean ",
  "2552": "prac",
  "2553": "e, but ",
  "2554": "ucc",
  "2555": "Middle ",
  "2556": "sl",
  "2557": "religious ",
  "2558": "ism, ",
  "2559": "environment",
  "2560": "\u00e2\u0080\u0094",
  "2561": "omb",
  "2562": "as, ",
  "2563": "es\"",
  "2564": "ed by a ",
  "2565": "pun",
  "2566": "roy",
  "2567": "rock",
  "2568": "o-",
  "2569": "\" and \"",
  "2570": "ated",
  "2571": "people to ",
  "2572": "study of ",
  "2573": "rules ",
  "2574": "s.\nFor example, ",
  "2575": "Ver",
  "2576": "Australian ",
  "2577": "cienti",
  "2578": "this, ",
  "2579": "ong the ",
  "2580": "fre",
  "2581": "help ",
  "2582": "ames ",
  "2583": "ort",
  "2584": "Ge",
  "2585": "sea ",
  "2586": "trav",
  "2587": "vot",
  "2588": "s.\nT",
  "2589": "ently ",
  "2590": "has many ",
  "2591": "public ",
  "2592": "3.",
  "2593": "sw",
  "2594": "call ",
  "2595": "U.",
  "2596": "til",
  "2597": "itsel",
  "2598": "third ",
  "2599": "pag",
  "2600": "Muslim ",
  "2601": "electron",
  "2602": "orbit",
  "2603": "magnetic ",
  "2604": "Milky W",
  "2605": "resourc",
  "2606": "bankruptc",
  "2607": "appro",
  "2608": ".\nFrance ",
  "2609": "Jun",
  "2610": "estiv",
  "2611": "Or",
  "2612": "s\" ",
  "2613": "Bi",
  "2614": "pat",
  "2615": "a, and ",
  "2616": "or a ",
  "2617": "alpha",
  "2618": "above ",
  "2619": ", such as ",
  "2620": "anti",
  "2621": "illi",
  "2622": "atmosphere ",
  "2623": "echn",
  "2624": "Tur",
  "2625": "German ",
  "2626": "military ",
  "2627": "ed on the ",
  "2628": "From ",
  "2629": "idg",
  "2630": "never ",
  "2631": "Prime ",
  "2632": "Minist",
  "2633": ") is a ",
  "2634": "s, which ",
  "2635": "rest ",
  "2636": "Mac",
  "2637": "settl",
  "2638": "easi",
  "2639": "school",
  "2640": "job",
  "2641": "few ",
  "2642": "y's ",
  "2643": "eal",
  "2644": "a's ",
  "2645": "es in the ",
  "2646": "inf",
  "2647": "building",
  "2648": "se ",
  "2649": "ich",
  "2650": "not be ",
  "2651": "pire",
  "2652": "want ",
  "2653": "known as the ",
  "2654": "dest",
  "2655": "Indian ",
  "2656": "U.S",
  "2657": "compan",
  "2658": "cu",
  "2659": "physic",
  "2660": "identi",
  "2661": "th century, ",
  "2662": "grav",
  "2663": "phon",
  "2664": "oppos",
  "2665": "far ",
  "2666": "ars ",
  "2667": "s on ",
  "2668": "ards ",
  "2669": "ban ",
  "2670": "Presid",
  "2671": "Braz",
  "2672": "general ",
  "2673": "Mo",
  "2674": "encycl",
  "2675": "Manhatt",
  "2676": "the second ",
  "2677": "mer ",
  "2678": "experi",
  "2679": "used",
  "2680": "normally ",
  "2681": "styl",
  "2682": "most of the ",
  "2683": "coll",
  "2684": "ogn",
  "2685": "scal",
  "2686": "particl",
  "2687": "volum",
  "2688": "whether ",
  "2689": "influenc",
  "2690": "Spain",
  "2691": "4, ",
  "2692": "7, ",
  "2693": "decid",
  "2694": "med",
  "2695": "leas",
  "2696": "198",
  "2697": "saus",
  "2698": "grown ",
  "2699": "generally ",
  "2700": "e.\nThis ",
  "2701": "need ",
  "2702": "requir",
  "2703": "\")",
  "2704": "group ",
  "2705": "east ",
  "2706": "mammal",
  "2707": "democrac",
  "2708": "except ",
  "2709": "40",
  "2710": "shar",
  "2711": "fruit",
  "2712": "eat",
  "2713": "second ",
  "2714": "women ",
  "2715": "surround",
  "2716": ".\nAb",
  "2717": "hand",
  "2718": "human",
  "2719": "es on ",
  "2720": "ology, ",
  "2721": ".\nAc",
  "2722": "left ",
  "2723": "comes from ",
  "2724": "bacter",
  "2725": "worship",
  "2726": "atomic ",
  "2727": "element ",
  "2728": "micro",
  "2729": ", it ",
  "2730": "bodi",
  "2731": "things that ",
  "2732": "che",
  "2733": "assi",
  "2734": "ethn",
  "2735": "eij",
  "2736": "dia ",
  "2737": "stic",
  "2738": "encyclope",
  "2739": "Neptune ",
  "2740": "that it ",
  "2741": "25",
  "2742": "moved ",
  "2743": "object",
  "2744": "auth",
  "2745": "e.\nH",
  "2746": "invent",
  "2747": "ern",
  "2748": "Ex",
  "2749": "right",
  "2750": "e:\n\n",
  "2751": "hot ",
  "2752": "exec",
  "2753": "s.\nThese ",
  "2754": "que ",
  "2755": "educ",
  "2756": "run",
  "2757": "Sw",
  "2758": "e was ",
  "2759": "conqu",
  "2760": "and other ",
  "2761": "pon",
  "2762": "total ",
  "2763": "diam",
  "2764": "eder",
  "2765": "record",
  "2766": "ed for ",
  "2767": "only one ",
  "2768": "how to ",
  "2769": "ooking ",
  "2770": "separate ",
  "2771": "servic",
  "2772": "foot",
  "2773": "s.\nMost ",
  "2774": "most common ",
  "2775": "tradition",
  "2776": "char",
  "2777": "U.S. ",
  "2778": "species ",
  "2779": "ras",
  "2780": "through",
  "2781": "Jew",
  "2782": "lik",
  "2783": "list",
  "2784": "moving ",
  "2785": "best ",
  "2786": "formula_2",
  "2787": "zer",
  "2788": "common",
  "2789": "exper",
  "2790": "9, ",
  "2791": "most of ",
  "2792": "electron ",
  "2793": "aver",
  "2794": "ground ",
  "2795": "questions ",
  "2796": "telescop",
  "2797": "leng",
  "2798": "controll",
  "2799": "operating ",
  "2800": "arr",
  "2801": "economic ",
  "2802": "verb",
  "2803": "FD",
  "2804": "Finn",
  "2805": "month of the ",
  "2806": "April ",
  "2807": "Southern ",
  "2808": "it has ",
  "2809": "\" or \"",
  "2810": "civi",
  "2811": "angel",
  "2812": ".\nIn some ",
  "2813": "ties, ",
  "2814": "societ",
  "2815": "came from ",
  "2816": "outer ",
  "2817": "off ",
  "2818": "up to ",
  "2819": "sign",
  "2820": "ific",
  "2821": "provinc",
  "2822": "she ",
  "2823": "e that ",
  "2824": "is, ",
  "2825": "'t ",
  "2826": "releas",
  "2827": "became a ",
  "2828": "tou",
  "2829": "hun",
  "2830": "e.\nF",
  "2831": ".\nDuring the ",
  "2832": "neg",
  "2833": "complex ",
  "2834": "Ocean",
  "2835": "mass of ",
  "2836": "nation",
  "2837": "caus",
  "2838": "es have ",
  "2839": "t and ",
  "2840": "a (",
  "2841": "they were ",
  "2842": "es.\nThey ",
  "2843": "because of ",
  "2844": "earch ",
  "2845": "strong",
  "2846": "members ",
  "2847": "fri",
  "2848": "ons and ",
  "2849": "new",
  "2850": "US ",
  "2851": "e.",
  "2852": "Empir",
  "2853": ".\nTo ",
  "2854": "NA",
  "2855": "ent, ",
  "2856": "sha",
  "2857": "childr",
  "2858": "pin",
  "2859": "ests ",
  "2860": "quare ",
  "2861": "ori",
  "2862": "ation is ",
  "2863": "chemistr",
  "2864": "hair",
  "2865": "electrons ",
  "2866": "ampl",
  "2867": ".\nCh",
  "2868": "structur",
  "2869": "planets ",
  "2870": "tis",
  "2871": "ecra",
  "2872": "town",
  "2873": "astern ",
  "2874": "uk",
  "2875": "geo",
  "2876": "Union",
  "2877": "aliz",
  "2878": "computers ",
  "2879": "11 ",
  "2880": "comed",
  "2881": "FDL",
  "2882": "libraries ",
  "2883": "begins ",
  "2884": "finishes ",
  "2885": "finishes on the same day of the week as ",
  "2886": "open",
  "2887": "ing in ",
  "2888": ".\nAnother ",
  "2889": "begin",
  "2890": "ft",
  "2891": "divis",
  "2892": "rock ",
  "2893": "lower ",
  "2894": "e a ",
  "2895": "gas ",
  "2896": ".\nThere is ",
  "2897": "times, ",
  "2898": "techn",
  "2899": "es)",
  "2900": "became the ",
  "2901": "36",
  "2902": "hor",
  "2903": "g ",
  "2904": "evis",
  "2905": "y (",
  "2906": "crop",
  "2907": "probab",
  "2908": "provid",
  "2909": "bad ",
  "2910": "break",
  "2911": "method",
  "2912": "prim",
  "2913": "can also be ",
  "2914": "dition ",
  "2915": "thre",
  "2916": "weal",
  "2917": "borigin",
  "2918": "continu",
  "2919": "al and ",
  "2920": "Di",
  "2921": "open ",
  "2922": "ected ",
  "2923": "many people ",
  "2924": "America ",
  "2925": "claim",
  "2926": "Moun",
  "2927": "\u00c2\u00a0k",
  "2928": "again ",
  "2929": ".\nAfter the ",
  "2930": "lym",
  "2931": "replac",
  "2932": "ies.\n",
  "2933": "whole ",
  "2934": "\"The ",
  "2935": "sports ",
  "2936": "out of ",
  "2937": "hear",
  "2938": "recogn",
  "2939": "fast",
  "2940": "plur",
  "2941": "instead of ",
  "2942": "rat",
  "2943": "fur",
  "2944": "pub",
  "2945": "active ",
  "2946": "organiz",
  "2947": "Chur",
  "2948": "information ",
  "2949": "spacecra",
  "2950": "is made ",
  "2951": "archae",
  "2952": "ity of ",
  "2953": "Dev",
  "2954": "organism",
  "2955": "GFDL",
  "2956": "four",
  "2957": "Ju",
  "2958": "eks ",
  "2959": "starts on the same day of the week as ",
  "2960": "held ",
  "2961": "useful ",
  "2962": "dra",
  "2963": "a new ",
  "2964": "succ",
  "2965": "Ancient ",
  "2966": "wall",
  "2967": "don",
  "2968": "pot",
  "2969": "discovered ",
  "2970": "pictur",
  "2971": "in their ",
  "2972": "Pro",
  "2973": "sound",
  "2974": "six ",
  "2975": "etc",
  "2976": "\n\nA",
  "2977": "tin",
  "2978": "incre",
  "2979": "increas",
  "2980": "changed ",
  "2981": "rap",
  "2982": "means that ",
  "2983": "s:\n\n",
  "2984": "born ",
  "2985": "engine",
  "2986": "is to ",
  "2987": "Ir",
  "2988": "John ",
  "2989": "communic",
  "2990": "during ",
  "2991": "e for ",
  "2992": "Prime Minist",
  "2993": "ator ",
  "2994": "all of the ",
  "2995": "hour",
  "2996": "ban",
  "2997": "represent",
  "2998": "larger ",
  "2999": "past ",
  "3000": "ped ",
  "3001": "saw ",
  "3002": "way of ",
  "3003": "seed",
  "3004": "Fir",
  "3005": "was not ",
  "3006": ".\nIn 18",
  "3007": "oud",
  "3008": "Empire",
  "3009": "pass",
  "3010": "oday ",
  "3011": "Pol",
  "3012": "dictator",
  "3013": "Hol",
  "3014": "Sh",
  "3015": "War",
  "3016": "China",
  "3017": "powerful ",
  "3018": "us, ",
  "3019": "appear",
  "3020": "based on ",
  "3021": "consider",
  "3022": ".\nAbout ",
  "3023": "th of the ",
  "3024": "ink",
  "3025": "es with ",
  "3026": "liter",
  "3027": "formula_1",
  "3028": "adv",
  "3029": "(or ",
  "3030": "bran",
  "3031": "ounds ",
  "3032": "are not ",
  "3033": "i, ",
  "3034": "field",
  "3035": "verse",
  "3036": "from a ",
  "3037": "bord",
  "3038": "sun",
  "3039": "most important ",
  "3040": "money",
  "3041": "fore",
  "3042": "arc",
  "3043": "Lake ",
  "3044": "Ireland",
  "3045": "edia",
  "3046": "ediaW",
  "3047": "prayer ",
  "3048": "30 ",
  "3049": "addition",
  "3050": "ends on the same day of the week as ",
  "3051": "ember",
  "3052": "season",
  "3053": "Central ",
  "3054": "coming ",
  "3055": "in, ",
  "3056": "say that ",
  "3057": "jud",
  "3058": "rather ",
  "3059": "public",
  "3060": "glass ",
  "3061": "is the s",
  "3062": "ically ",
  "3063": "Pri",
  "3064": "atmospher",
  "3065": "2.",
  "3066": "position ",
  "3067": "volcan",
  "3068": "next ",
  "3069": "legis",
  "3070": "Ma",
  "3071": "famil",
  "3072": "pap",
  "3073": "there were ",
  "3074": "thousands of ",
  "3075": "probably ",
  "3076": "they have ",
  "3077": "wood",
  "3078": "ly, ",
  "3079": "answ",
  "3080": "coast",
  "3081": ".\nBecause of ",
  "3082": "capital",
  "3083": ".\nUn",
  "3084": "back",
  "3085": "sent ",
  "3086": ".\nThe",
  "3087": "test ",
  "3088": "lost ",
  "3089": "wanted to ",
  "3090": "run ",
  "3091": "local ",
  "3092": "all of ",
  "3093": ".\nSo ",
  "3094": "for example ",
  "3095": "stars ",
  "3096": "es.\nM",
  "3097": "top ",
  "3098": "occ",
  "3099": "al-",
  "3100": "bit",
  "3101": "for \"",
  "3102": "throughout ",
  "3103": "tell",
  "3104": "eb",
  "3105": "viol",
  "3106": "play ",
  "3107": "relat",
  "3108": "ans, ",
  "3109": "indi",
  "3110": "1,",
  "3111": "Budd",
  "3112": "ists ",
  "3113": "attr",
  "3114": "vert",
  "3115": "Sun ",
  "3116": "astronomers ",
  "3117": "Uran",
  "3118": "ource ",
  "3119": "correc",
  "3120": "ense",
  "3121": "as well as ",
  "3122": "past",
  "3123": "short ",
  "3124": "sty",
  "3125": "tian ",
  "3126": "temperature ",
  "3127": "ship ",
  "3128": "under the ",
  "3129": "actually ",
  "3130": "e is a ",
  "3131": "liquid ",
  "3132": "in the Solar System",
  "3133": "\u00c2\u00a0\u00c2\u00b0",
  "3134": "Hawaiian ",
  "3135": "osqu",
  "3136": "24",
  "3137": "come from ",
  "3138": "e)",
  "3139": "ograph",
  "3140": "purpos",
  "3141": "dyn",
  "3142": "y is a ",
  "3143": "e in the ",
  "3144": "northern ",
  "3145": "s.\nIt ",
  "3146": "C ",
  "3147": "because it is ",
  "3148": ".\nSince ",
  "3149": "cannot be ",
  "3150": "years ago",
  "3151": ".\nBefor",
  "3152": "eli",
  "3153": "\u00e2\u0080\u0093 ",
  "3154": ", S",
  "3155": "could be ",
  "3156": "centr",
  "3157": "det",
  "3158": "program ",
  "3159": "ask",
  "3160": "ward",
  "3161": "5, ",
  "3162": "televis",
  "3163": "um, ",
  "3164": "gave ",
  "3165": "tional ",
  "3166": "survi",
  "3167": "contains ",
  "3168": "include the ",
  "3169": "thme",
  "3170": "multiplic",
  "3171": "learn",
  "3172": "action ",
  "3173": "unit",
  "3174": "hou",
  "3175": "becom",
  "3176": "officially ",
  "3177": "million people ",
  "3178": "for its ",
  "3179": "arriv",
  "3180": "New",
  "3181": "th-",
  "3182": "Dutch ",
  "3183": "free ",
  "3184": "tool",
  "3185": "town ",
  "3186": "pan",
  "3187": "western ",
  "3188": "white ",
  "3189": "join",
  "3190": "invad",
  "3191": "8, ",
  "3192": "eter ",
  "3193": "prof",
  "3194": "strong ",
  "3195": "es from ",
  "3196": "ential ",
  "3197": "oil",
  "3198": "dial",
  "3199": "many other ",
  "3200": "have different ",
  "3201": "phras",
  "3202": "ing a ",
  "3203": "tries ",
  "3204": "said that ",
  "3205": "13",
  "3206": "whose ",
  "3207": "cord",
  "3208": "has the ",
  "3209": "\u00e2\u0080\u0099",
  "3210": "fruit ",
  "3211": "er the ",
  "3212": "liquid",
  "3213": "allest ",
  "3214": "electric ",
  "3215": "Hind",
  "3216": "microsc",
  "3217": "individ",
  "3218": "than the ",
  "3219": "ions ",
  "3220": "light",
  "3221": "particular ",
  "3222": "takes ",
  "3223": "pen ",
  "3224": "galaxies ",
  "3225": "Hawaii",
  "3226": "ights ",
  "3227": "Pak",
  "3228": "Pakist",
  "3229": "ethnic ",
  "3230": "central ",
  "3231": "evid",
  "3232": "ers of ",
  "3233": "respec",
  "3234": "antic ",
  "3235": "Peo",
  "3236": "Peopl",
  "3237": "imal ",
  "3238": "Veg",
  "3239": "Beij",
  "3240": "Belgian ",
  "3241": "list ",
  "3242": "Greg",
  "3243": "Gregor",
  "3244": "one of ",
  "3245": "begins on the same day of the week as ",
  "3246": "ring ",
  "3247": "Wal",
  "3248": ") is the ",
  "3249": "activ",
  "3250": "is called a ",
  "3251": "dri",
  "3252": "each other ",
  "3253": "ertain ",
  "3254": "audi",
  "3255": "civiliz",
  "3256": "amic ",
  "3257": "her ",
  "3258": "because it ",
  "3259": "represent ",
  "3260": "as \"",
  "3261": "living things ",
  "3262": "warm",
  "3263": "soon ",
  "3264": "life",
  "3265": "practic",
  "3266": "heav",
  "3267": "fif",
  "3268": "Coun",
  "3269": "Charl",
  "3270": "ah ",
  "3271": "World War II",
  "3272": "tell ",
  "3273": "bridg",
  "3274": "having ",
  "3275": "rown ",
  "3276": "pit",
  "3277": "s.\nIt is ",
  "3278": "6, ",
  "3279": "sausag",
  "3280": "growing ",
  "3281": "ock ",
  "3282": "animal ",
  "3283": "some people ",
  "3284": "accoun",
  "3285": "s can ",
  "3286": "n, ",
  "3287": "half ",
  "3288": "live in the ",
  "3289": "including the ",
  "3290": "Aborigin",
  "3291": "member of the ",
  "3292": "and a ",
  "3293": ") or ",
  "3294": "avi",
  "3295": "or, ",
  "3296": "70",
  "3297": "esh ",
  "3298": "stre",
  "3299": "Olym",
  "3300": "immig",
  "3301": "ancial ",
  "3302": "agu",
  "3303": "neigh",
  "3304": "spelling ",
  "3305": "e.g",
  "3306": "compar",
  "3307": "featur",
  "3308": "ffer",
  "3309": "wal",
  "3310": "def",
  "3311": "les",
  "3312": "against the ",
  "3313": "India",
  "3314": "leave ",
  "3315": "s with ",
  "3316": "estab",
  "3317": "estr",
  "3318": "as an ",
  "3319": "Argentin",
  "3320": "Cor",
  "3321": "odern ",
  "3322": "go to ",
  "3323": "invol",
  "3324": ": formula_",
  "3325": "abil",
  "3326": "name \"",
  "3327": "inary ",
  "3328": "understand ",
  "3329": "force ",
  "3330": "s.\nOn",
  "3331": "publish",
  "3332": "average ",
  "3333": "s.\nThere are ",
  "3334": "ure ",
  "3335": "moon",
  "3336": "er of the ",
  "3337": "ile",
  "3338": "data ",
  "3339": "y is the ",
  "3340": "tun",
  "3341": "body",
  "3342": "studies ",
  "3343": "ster",
  "3344": "language",
  "3345": "country in ",
  "3346": "city of ",
  "3347": "Riv",
  "3348": "es, the ",
  "3349": "at least ",
  "3350": "People's ",
  "3351": "ef",
  "3352": "ili",
  "3353": "Armen",
  "3354": "softw",
  "3355": "fil",
  "3356": "\" in ",
  "3357": "mal",
  "3358": "nowiki",
  "3359": "nowiki>",
  "3360": "month of the year ",
  "3361": "of the following year, and in ",
  "3362": "hemispher",
  "3363": "before the ",
  "3364": "end of the ",
  "3365": "winter",
  "3366": "days ",
  "3367": "people are ",
  "3368": "du",
  "3369": "a certain ",
  "3370": "ting",
  "3371": "geometr",
  "3372": "tern",
  "3373": "architect",
  "3374": "close ",
  "3375": "ping ",
  "3376": "Cl",
  "3377": "social ",
  "3378": "es.\nIn ",
  "3379": "ium ",
  "3380": "ed of ",
  "3381": "glob",
  "3382": "health ",
  "3383": "ers to ",
  "3384": "is one of the ",
  "3385": "but",
  "3386": "bomb",
  "3387": "Charles ",
  "3388": "60 ",
  "3389": "ute ",
  "3390": "e.\nT",
  "3391": "ported ",
  "3392": "fus",
  "3393": "ested ",
  "3394": "in 200",
  "3395": "\"M",
  "3396": "extr",
  "3397": "iel",
  "3398": "ers are ",
  "3399": "ation (",
  "3400": "it is not ",
  "3401": "distr",
  "3402": "are also ",
  "3403": "working ",
  "3404": "doc",
  "3405": "hundred",
  "3406": "thousand ",
  "3407": "measure",
  "3408": "equal ",
  "3409": "dne",
  "3410": "Pac",
  "3411": "island of ",
  "3412": "Gener",
  "3413": "is very ",
  "3414": "stone ",
  "3415": "oyag",
  "3416": "must be ",
  "3417": "full ",
  "3418": "land and ",
  "3419": "problem ",
  "3420": "First ",
  "3421": "son",
  "3422": "had been ",
  "3423": "hold ",
  "3424": "son ",
  "3425": "sport",
  "3426": "Parliam",
  "3427": "Europeans ",
  "3428": "up of ",
  "3429": "wrote ",
  "3430": "ature",
  "3431": "specific ",
  "3432": "English, ",
  "3433": "e\n\n",
  "3434": "ministr",
  "3435": "Angel ",
  "3436": "e.\nWhen ",
  "3437": "Kingdom of ",
  "3438": "describe ",
  "3439": "inside ",
  "3440": "gives ",
  "3441": "emp",
  "3442": "es.\nSome ",
  "3443": "cultural ",
  "3444": "exic",
  "3445": "at the same ",
  "3446": "also have ",
  "3447": "fic ",
  "3448": "called a ",
  "3449": "Christians ",
  "3450": "religions ",
  "3451": "wo ",
  "3452": "by a ",
  "3453": "ith ",
  "3454": "looks ",
  "3455": "soli",
  "3456": ".\nEx",
  "3457": "isot",
  "3458": "until the ",
  "3459": "compound",
  "3460": "es.\nS",
  "3461": "s.\nN",
  "3462": "reason",
  "3463": "circl",
  "3464": "unit ",
  "3465": "ydro",
  "3466": ".\nIf the ",
  "3467": "s.\nW",
  "3468": "object ",
  "3469": ") are ",
  "3470": "super",
  "3471": "Church ",
  "3472": "reach",
  "3473": "classi",
  "3474": "ologists ",
  "3475": "geograph",
  "3476": "tow",
  "3477": "thin ",
  "3478": "Atl",
  "3479": "the sou",
  "3480": "living thing",
  "3481": "bankruptcy ",
  "3482": "death",
  "3483": "Mad",
  "3484": "ench",
  "3485": "inal ",
  "3486": "moon ",
  "3487": "kilometr",
  "3488": "metaphor ",
  "3489": "Italy ",
  "3490": "- - - - ",
  "3491": "Gregorian ",
  "3492": "of the previous year.\nIn ",
  "3493": "e.\nA ",
  "3494": "meaning \"",
  "3495": "festiv",
  "3496": "Ca",
  "3497": "beginning ",
  "3498": "it is a ",
  "3499": "perform",
  "3500": "imp",
  "3501": "Pal",
  "3502": "iss",
  "3503": "too",
  "3504": "belong",
  "3505": "rain ",
  "3506": "mak",
  "3507": "community ",
  "3508": "20 ",
  "3509": "Ed",
  "3510": "e.\nO",
  "3511": "190",
  "3512": "longer ",
  "3513": "Govern",
  "3514": "Britain",
  "3515": ".\nWh",
  "3516": "driv",
  "3517": "ison",
  "3518": "him ",
  "3519": "began to ",
  "3520": "lav",
  "3521": "citiz",
  "3522": "combin",
  "3523": "eight ",
  "3524": ".\nMany people ",
  "3525": "rich ",
  "3526": "or the ",
  "3527": "s.\nL",
  "3528": "world, ",
  "3529": "s a ",
  "3530": "arithme",
  "3531": "although ",
  "3532": "negative ",
  "3533": "carri",
  "3534": ".\nAd",
  "3535": "building ",
  "3536": "occur",
  "3537": "hundred ",
  "3538": "ydne",
  "3539": "bour",
  "3540": "plat",
  "3541": "independent ",
  "3542": "ies.\nThe ",
  "3543": "is about ",
  "3544": "continent ",
  "3545": "grew ",
  "3546": "population",
  "3547": "remain",
  "3548": "James ",
  "3549": "back to ",
  "3550": "death ",
  "3551": "e.\nB",
  "3552": "Port",
  "3553": "had a ",
  "3554": "easy to ",
  "3555": "100 ",
  "3556": "hot",
  "3557": "Counc",
  "3558": "continent",
  "3559": ".\nThen ",
  "3560": "Vi",
  "3561": "Kor",
  "3562": "round ",
  "3563": "current ",
  "3564": "organis",
  "3565": "rac",
  "3566": "es for ",
  "3567": "if they ",
  "3568": "different from ",
  "3569": "companies ",
  "3570": "Bal",
  "3571": "Jud",
  "3572": "people of ",
  "3573": "mountain ",
  "3574": "quickly ",
  "3575": "rain",
  "3576": "Muslims ",
  "3577": "your ",
  "3578": "intro",
  "3579": "introduc",
  "3580": "writing ",
  "3581": "trem",
  "3582": "mountain",
  "3583": "cold",
  "3584": "\u00c3\u00a1",
  "3585": "meaning",
  "3586": "Tr",
  "3587": "ing, and ",
  "3588": "book ",
  "3589": "have to ",
  "3590": "is often ",
  "3591": "ugh",
  "3592": "experim",
  "3593": "Buddh",
  "3594": "elements ",
  "3595": "ium",
  "3596": "gram",
  "3597": "scientists ",
  "3598": "the Sun",
  "3599": "chlor",
  "3600": "rom",
  "3601": "laun",
  "3602": "establish",
  "3603": "point",
  "3604": "Afghanistan",
  "3605": "River ",
  "3606": "is usually ",
  "3607": "immune ",
  "3608": "person's ",
  "3609": "Nether",
  "3610": "god ",
  "3611": "dimen",
  "3612": "hydr",
  "3613": "encyclopedi",
  "3614": "Goog",
  "3615": "MediaW",
  "3616": "as Veg",
  "3617": "Gregorian calendar",
  "3618": "weeks ",
  "3619": "weeks (",
  "3620": ", and in leap years, ",
  "3621": "years immediately before common years, ",
  "3622": "years immediately before leap years, ",
  "3623": "got ",
  "3624": "sens",
  "3625": "arrang",
  "3626": "feel ",
  "3627": "Persi",
  "3628": "graphy",
  "3629": "inci",
  "3630": "my",
  "3631": ".\nThis was ",
  "3632": "ular",
  "3633": "imal",
  "3634": "one",
  "3635": "function",
  "3636": "musical ",
  "3637": "with other ",
  "3638": "ung",
  "3639": "global ",
  "3640": "heat ",
  "3641": "support ",
  "3642": "true ",
  "3643": "at a ",
  "3644": "electric",
  "3645": "class",
  "3646": "asteroid",
  "3647": "sist",
  "3648": "hi",
  "3649": "engineer",
  "3650": "th century",
  "3651": "estim",
  "3652": "\u00e2\u0080\u009c",
  "3653": "England",
  "3654": "priv",
  "3655": "Mor",
  "3656": "youn",
  "3657": "ally",
  "3658": "ed many ",
  "3659": "ang ",
  "3660": "sor",
  "3661": "seven ",
  "3662": "Cel",
  "3663": "nu",
  "3664": "the sur",
  "3665": "damag",
  "3666": "concep",
  "3667": "Ad",
  "3668": "15 ",
  "3669": "house",
  "3670": "deser",
  "3671": "aro",
  "3672": "s and the ",
  "3673": "Tas",
  "3674": "United N",
  "3675": "General ",
  "3676": "country, ",
  "3677": "made from ",
  "3678": "S ",
  "3679": "80",
  "3680": ".\nTheir ",
  "3681": "should be ",
  "3682": "when they ",
  "3683": "ending ",
  "3684": "cam",
  "3685": "to do ",
  "3686": "vo",
  "3687": "East ",
  "3688": "today ",
  "3689": "business ",
  "3690": "found in ",
  "3691": ".\nThere are also ",
  "3692": "developed ",
  "3693": "oday, ",
  "3694": "key",
  "3695": "feet ",
  "3696": "children ",
  "3697": "stra",
  "3698": "as they ",
  "3699": "how the ",
  "3700": "earth",
  "3701": "Sha",
  "3702": "ument",
  "3703": "log",
  "3704": "Native Americans ",
  "3705": "connect",
  "3706": "mel",
  "3707": "living in ",
  "3708": "es: ",
  "3709": "oft ",
  "3710": "fully ",
  "3711": "ditions ",
  "3712": "a\"",
  "3713": "thm",
  "3714": "y-",
  "3715": "ner",
  "3716": "eler",
  "3717": "normal ",
  "3718": "er than the ",
  "3719": "doing ",
  "3720": "nucleus ",
  "3721": "ation of the ",
  "3722": "on is ",
  "3723": "shell",
  "3724": "stop ",
  "3725": "bul",
  "3726": "tried to ",
  "3727": "movement",
  "3728": "proces",
  "3729": "Voyag",
  "3730": "pal",
  "3731": "Eastern ",
  "3732": "oid ",
  "3733": "country's ",
  "3734": "h of ",
  "3735": "Atlantic ",
  "3736": "ugu",
  "3737": "nec",
  "3738": "e.\nM",
  "3739": "information",
  "3740": "administr",
  "3741": "cell ",
  "3742": "vertebr",
  "3743": "well-",
  "3744": "boot ",
  "3745": "health",
  "3746": "Tai",
  "3747": "Belgium ",
  "3748": "river ",
  "3749": "Swed",
  "3750": "personal ",
  "3751": "rid ",
  "3752": "insul",
  "3753": "Milky Way ",
  "3754": "New York",
  "3755": "dance ",
  "3756": "rhy",
  "3757": "sions ",
  "3758": "infec",
  "3759": "Bro",
  "3760": "mammals ",
  "3761": "perial ",
  "3762": "Hawaii ",
  "3763": "decimal ",
  "3764": "Juli",
  "3765": "of the following year, and in years immediately before leap years, ",
  "3766": "lov",
  "3767": "cultures, ",
  "3768": "in common ",
  "3769": ".\nSome people ",
  "3770": "phot",
  "3771": "interest",
  "3772": "success",
  "3773": "Middle Ag",
  "3774": "fig",
  "3775": "view",
  "3776": "y has ",
  "3777": "that was ",
  "3778": "sound ",
  "3779": "lab",
  "3780": "illiam ",
  "3781": "Priz",
  "3782": "in which ",
  "3783": "oxygen",
  "3784": "oxid",
  "3785": "ready ",
  "3786": "hug",
  "3787": "great",
  "3788": "communi",
  "3789": "majority ",
  "3790": "12 ",
  "3791": "slow",
  "3792": "195",
  "3793": "Sc",
  "3794": "of an ",
  "3795": "years old",
  "3796": "\u00e2\u0080\u009d",
  "3797": "break ",
  "3798": "to have ",
  "3799": "turn",
  "3800": "member",
  "3801": "\", \"",
  "3802": "chemicals ",
  "3803": "easier to ",
  "3804": "for their ",
  "3805": "ation and ",
  "3806": "puter",
  "3807": "mathematical ",
  "3808": "or more ",
  "3809": ".\nAustralia ",
  "3810": "Tasman",
  "3811": "chos",
  "3812": "inland ",
  "3813": ".\nOnly ",
  "3814": "bal",
  "3815": "oth",
  "3816": "little ",
  "3817": "factor",
  "3818": "ush",
  "3819": ".\nBy ",
  "3820": "get",
  "3821": "Britain ",
  "3822": "fought ",
  "3823": "el, ",
  "3824": "que",
  "3825": "traditional ",
  "3826": "card",
  "3827": "character",
  "3828": "company ",
  "3829": "Internet ",
  "3830": "appear ",
  "3831": "angels ",
  "3832": "Jes",
  "3833": "im ",
  "3834": "desc",
  "3835": "simply ",
  "3836": "repe",
  "3837": "speaking ",
  "3838": "attack",
  "3839": "hur",
  "3840": "ancest",
  "3841": "Ber",
  "3842": "earliest ",
  "3843": "ing on ",
  "3844": "Mexic",
  "3845": "emal",
  "3846": "politic",
  "3847": "oss",
  "3848": "El",
  "3849": "cut ",
  "3850": "shape",
  "3851": "Bab",
  "3852": "\u00c3\u00ad",
  "3853": "the sm",
  "3854": "temperatur",
  "3855": "destroy",
  "3856": "ed at ",
  "3857": "ed it ",
  "3858": "likely ",
  "3859": "sho",
  "3860": "direction",
  "3861": "cos",
  "3862": "t the ",
  "3863": "position",
  "3864": "wav",
  "3865": "study of the ",
  "3866": "arch ",
  "3867": "style ",
  "3868": "blood ",
  "3869": "Tali",
  "3870": "k and ",
  "3871": "to get ",
  "3872": "empir",
  "3873": "Commun",
  "3874": "ind ",
  "3875": "Spanish",
  "3876": "dish",
  "3877": "part ",
  "3878": "Egypt ",
  "3879": "quite ",
  "3880": "water, ",
  "3881": "veg",
  "3882": "regions ",
  "3883": "French",
  "3884": "Ac",
  "3885": "ches",
  "3886": "dictionary ",
  "3887": "choriz",
  "3888": "e of a ",
  "3889": "Se",
  "3890": "ropol",
  "3891": "head ",
  "3892": "Montre",
  "3893": "idi",
  "3894": "Jupiter's ",
  "3895": "month of the year in the ",
  "3896": ".\nIt also ",
  "3897": "fall ",
  "3898": "Hemispher",
  "3899": "it is the ",
  "3900": "ring",
  "3901": "winter ",
  "3902": "was first ",
  "3903": "music, ",
  "3904": "themselv",
  "3905": "architecture",
  "3906": "s.\nPeople ",
  "3907": "o and ",
  "3908": "\n\n\n",
  "3909": "similar to ",
  "3910": "symbol ",
  "3911": "a sim",
  "3912": "Romans ",
  "3913": ".\nAlso",
  "3914": "nit",
  "3915": "Air",
  "3916": "ment of ",
  "3917": "17 ",
  "3918": "e.\nS",
  "3919": "language is ",
  "3920": "ital ",
  "3921": "north ",
  "3922": "This ",
  "3923": "En",
  "3924": "possible ",
  "3925": "ences ",
  "3926": "eating ",
  "3927": "cod",
  "3928": "anal",
  "3929": "24 ",
  "3930": "adi",
  "3931": "song",
  "3932": "all over the ",
  "3933": "tang",
  "3934": "teach",
  "3935": "citizen",
  "3936": "s.\nP",
  "3937": "xim",
  "3938": "material",
  "3939": "agr",
  "3940": "is now ",
  "3941": "explor",
  "3942": "buy ",
  "3943": "set of ",
  "3944": "ry",
  "3945": "cow",
  "3946": "tural ",
  "3947": "matter ",
  "3948": "whil",
  "3949": "Australia",
  "3950": "in the sou",
  "3951": "city is ",
  "3952": "Sydne",
  "3953": "Pacific ",
  "3954": "rem",
  "3955": "New South ",
  "3956": "New South Wal",
  "3957": "Vic",
  "3958": "middle ",
  "3959": "people and ",
  "3960": "Aboriginal ",
  "3961": "climat",
  "3962": "in different ",
  "3963": ".\nEvery ",
  "3964": "level ",
  "3965": "hundreds of ",
  "3966": "sent",
  "3967": ".\nOf",
  "3968": "into a ",
  "3969": "spread ",
  "3970": "people, ",
  "3971": "themselves ",
  "3972": "wan",
  "3973": "Turk",
  "3974": ".\nMore ",
  "3975": "Germany ",
  "3976": "25 ",
  "3977": "s.\nIn the ",
  "3978": "Christianity ",
  "3979": "on and ",
  "3980": "), the ",
  "3981": "18 ",
  "3982": "tour",
  "3983": "American English ",
  "3984": "in some ",
  "3985": "from other ",
  "3986": "spelling",
  "3987": "drop",
  "3988": "places ",
  "3989": "roph",
  "3990": "ron",
  "3991": "entire ",
  "3992": "can make ",
  "3993": "rep",
  "3994": "forms of ",
  "3995": "material ",
  "3996": "near",
  "3997": "itself",
  "3998": "widely ",
  "3999": "ed or ",
  "4000": "culture",
  "4001": "eastern ",
  "4002": "belief",
  "4003": "extrem",
  "4004": "presid",
  "4005": "in many ",
  "4006": "af",
  "4007": "or of ",
  "4008": "fruits ",
  "4009": "points ",
  "4010": "brah",
  "4011": "an important ",
  "4012": "istic ",
  "4013": "s.\nAl",
  "4014": "can be used to ",
  "4015": "Her",
  "4016": ".\nTher",
  "4017": "lar",
  "4018": "opposit",
  "4019": "proton",
  "4020": "isotop",
  "4021": "e.\nFor example, ",
  "4022": "on Earth ",
  "4023": "question",
  "4024": "spectr",
  "4025": "nearly ",
  "4026": "energy",
  "4027": "idea of ",
  "4028": "accord",
  "4029": "second",
  "4030": "stronom",
  "4031": "directly ",
  "4032": "proper ",
  "4033": "ways to ",
  "4034": "Catholic ",
  "4035": "sourc",
  "4036": "inte",
  "4037": "field ",
  "4038": "visit",
  "4039": "capital of ",
  "4040": "train",
  "4041": "commonly ",
  "4042": "Austria ",
  "4043": "Bron",
  "4044": "Holy ",
  "4045": "sla",
  "4046": "ocean",
  "4047": "issu",
  "4048": "recor",
  "4049": "branc",
  "4050": "pig",
  "4051": "ink ",
  "4052": "veget",
  "4053": "UK",
  "4054": "es\" ",
  "4055": "Netherland",
  "4056": "People's Republic of ",
  "4057": "ese, ",
  "4058": "used by ",
  "4059": "azz ",
  "4060": "5.",
  "4061": "articl",
  "4062": "Web",
  "4063": "50 ",
  "4064": "ircl",
  "4065": "diarr",
  "4066": "surfac",
  "4067": "financial ",
  "4068": "Finnish ",
  "4069": "content ",
  "4070": "iki ",
  "4071": "Uranus",
  "4072": "microscop",
  "4073": "hall",
  "4074": "Mercury ",
  "4075": "Martian ",
  "4076": "fourth ",
  "4077": "May",
  "4078": "apart",
  "4079": "that, ",
  "4080": "als are ",
  "4081": "in this ",
  "4082": "ated in ",
  "4083": "\" to ",
  "4084": "any other ",
  "4085": "BC ",
  "4086": "though",
  "4087": "emo",
  "4088": "design",
  "4089": ".\nMost of the ",
  "4090": "ade ",
  "4091": "Europe, ",
  "4092": "history of ",
  "4093": "include:\n\n",
  "4094": "actic ",
  "4095": "fied ",
  "4096": "alphabe",
  "4097": "used as ",
  "4098": "William ",
  "4099": "poll",
  "4100": "home to ",
  "4101": "used the ",
  "4102": "continental ",
  "4103": "ties of ",
  "4104": ".\nBefore ",
  "4105": "And",
  "4106": "ously ",
  "4107": ".\nHis ",
  "4108": "part of a ",
  "4109": "Ab",
  "4110": "d, ",
  "4111": "machine ",
  "4112": "convic",
  "4113": "detail",
  "4114": "punish",
  "4115": "Ot",
  "4116": "te ",
  "4117": "alb",
  "4118": "history",
  "4119": "For",
  "4120": "works ",
  "4121": "name",
  "4122": "version ",
  "4123": "nom",
  "4124": "Egypt",
  "4125": "Old ",
  "4126": "foo",
  "4127": "may have ",
  "4128": "people can ",
  "4129": "oil ",
  "4130": "s that are ",
  "4131": "los",
  "4132": ".\nThey also ",
  "4133": "saf",
  "4134": "associ",
  "4135": "equals ",
  "4136": "groups ",
  "4137": "Common",
  "4138": "Commonweal",
  "4139": "islands ",
  "4140": "of them ",
  "4141": "a are ",
  "4142": "carry ",
  "4143": "along the ",
  "4144": "state of ",
  "4145": "178",
  "4146": "meant ",
  "4147": "ray",
  "4148": "the government ",
  "4149": "ts, ",
  "4150": "fresh ",
  "4151": ".\nThere were ",
  "4152": "Georg",
  "4153": "ed, and ",
  "4154": "changes ",
  "4155": "Nav",
  "4156": "Har",
  "4157": "lots of ",
  "4158": "people from ",
  "4159": "stay",
  "4160": "ague ",
  "4161": "made up of ",
  "4162": "er.\nThe ",
  "4163": "ways of ",
  "4164": "instrument",
  "4165": "like \"",
  "4166": "based ",
  "4167": "rely ",
  "4168": "add ",
  "4169": "pronounc",
  "4170": "is the most ",
  "4171": "ho",
  "4172": "sea",
  "4173": "\n\nAn ",
  "4174": "examples of ",
  "4175": "\"L",
  "4176": ".\nAng",
  "4177": "Test",
  "4178": "fferent ",
  "4179": "Book ",
  "4180": ": the ",
  "4181": "Juda",
  "4182": "s.\nWhen ",
  "4183": "try to ",
  "4184": "s are not ",
  "4185": "believe that ",
  "4186": "nov",
  "4187": "physical ",
  "4188": ", while ",
  "4189": ".\nFrom ",
  "4190": "goes ",
  "4191": ",5",
  "4192": "region ",
  "4193": "area of ",
  "4194": "was the first ",
  "4195": ".\nAp",
  "4196": "bacteria ",
  "4197": "star ",
  "4198": "\") ",
  "4199": "ance, ",
  "4200": "United Kingdom ",
  "4201": "26",
  "4202": "ism and ",
  "4203": "algebra ",
  "4204": "ham",
  "4205": "written as ",
  "4206": "understand",
  "4207": ".\nTherefor",
  "4208": "applic",
  "4209": "groups of ",
  "4210": "cientists ",
  "4211": "neutrons ",
  "4212": "bond",
  "4213": "chemical re",
  "4214": "term \"",
  "4215": "\u00c3\u00b6",
  "4216": "deep",
  "4217": "complic",
  "4218": "pul",
  "4219": "helium",
  "4220": "movement ",
  "4221": "explain",
  "4222": "universe",
  "4223": "universe ",
  "4224": "books ",
  "4225": "galaxy ",
  "4226": "integr",
  "4227": "as it ",
  "4228": "from the Sun",
  "4229": "evolution",
  "4230": "limit",
  "4231": "architec",
  "4232": "s' ",
  "4233": "Iran",
  "4234": "follow ",
  "4235": "civ",
  "4236": "border ",
  "4237": "population of ",
  "4238": "composers ",
  "4239": "AD",
  "4240": "oot ",
  "4241": "operating system ",
  "4242": "user ",
  "4243": "ability ",
  "4244": "tor ",
  "4245": "ickn",
  "4246": "consum",
  "4247": "talk ",
  "4248": "visit ",
  "4249": "do not have ",
  "4250": "list of ",
  "4251": "constitution ",
  "4252": "\n\nC",
  "4253": "comedy ",
  "4254": "inside the ",
  "4255": "Cuba",
  "4256": "astro ",
  "4257": ".\nDenmar",
  "4258": "tax",
  "4259": "Finland",
  "4260": "surface ",
  "4261": "core ",
  "4262": "imperial ",
  "4263": ".\nItal",
  "4264": "immun",
  "4265": ".\nJupiter ",
  "4266": "library ",
  "4267": "\u00c3\u0097",
  "4268": "Micros",
  "4269": ".\nNept",
  "4270": "in leap year",
  "4271": "as each other",
  "4272": "as each other's ",
  "4273": "days are ",
  "4274": "35 ",
  "4275": "days) ",
  "4276": "of the previous year, and in leap years, ",
  "4277": "emisphere ",
  "4278": "dit",
  "4279": "originally ",
  "4280": ".\nIn many ",
  "4281": "end of ",
  "4282": ".\nOr",
  "4283": "deter",
  "4284": "13 ",
  "4285": "es a ",
  "4286": "ing or ",
  "4287": "draw",
  "4288": "judg",
  "4289": "how much ",
  "4290": "as well",
  "4291": "Ren",
  "4292": "allowed to ",
  "4293": "21 ",
  "4294": "already ",
  "4295": "present ",
  "4296": "exist ",
  "4297": "autonom",
  "4298": "legisl",
  "4299": "ties",
  "4300": "official languag",
  "4301": "E ",
  "4302": "prom",
  "4303": "ward ",
  "4304": "ober",
  "4305": "-day ",
  "4306": "cy",
  "4307": "National ",
  "4308": "it.\nThe ",
  "4309": "treat",
  "4310": "Canada",
  "4311": "sold ",
  "4312": "made by ",
  "4313": "rest of the ",
  "4314": "ren",
  "4315": "agricul",
  "4316": "Isra",
  "4317": "weather ",
  "4318": "nutri",
  "4319": "water and ",
  "4320": "may also ",
  "4321": "mon ",
  "4322": "metric ",
  "4323": "includes the ",
  "4324": "\n\nIn ",
  "4325": "exten",
  "4326": "separated ",
  "4327": "numbers are ",
  "4328": "near the ",
  "4329": "genous ",
  "4330": "gold",
  "4331": "United Nations ",
  "4332": "Australia and ",
  "4333": "chosen ",
  "4334": "= ",
  "4335": "s.\nD",
  "4336": "rough",
  "4337": "ts in ",
  "4338": "hon",
  "4339": ", \"",
  "4340": "Sol",
  "4341": "mission ",
  "4342": "up the ",
  "4343": "England ",
  "4344": ".\nThey were ",
  "4345": "road ",
  "4346": "are very ",
  "4347": "gold ",
  "4348": "rich",
  "4349": "limited ",
  "4350": "f-",
  "4351": "Arm",
  "4352": "trade ",
  "4353": "ont",
  "4354": "ans and ",
  "4355": "invas",
  "4356": "1960",
  "4357": "in 199",
  "4358": "busines",
  "4359": "accep",
  "4360": "shows ",
  "4361": "s.\nE",
  "4362": "et, ",
  "4363": "host",
  "4364": "popular",
  "4365": "foc",
  "4366": "on Earth",
  "4367": ".\nK",
  "4368": "es.\nThese ",
  "4369": "ens ",
  "4370": "Empire ",
  "4371": "habit",
  "4372": "brevi",
  "4373": "using the ",
  "4374": "Testam",
  "4375": "cher",
  "4376": "Book of ",
  "4377": "circ",
  "4378": "why ",
  "4379": "eu",
  "4380": "among ",
  "4381": "ts and ",
  "4382": "fle",
  "4383": ".\nMus",
  "4384": "attemp",
  "4385": "\" is a ",
  "4386": "prove ",
  "4387": "descend",
  "4388": ".\nFor example, the ",
  "4389": ".\nAccord",
  "4390": "United States, ",
  "4391": "esti",
  "4392": "4.",
  "4393": "tree ",
  "4394": "avail",
  "4395": "enjo",
  "4396": "gan",
  "4397": "Abrah",
  "4398": "holds ",
  "4399": "is called \"",
  "4400": "formula_3",
  "4401": "squar",
  "4402": "find",
  "4403": ", we ",
  "4404": "math ",
  "4405": ".\nTherefore, ",
  "4406": "universi",
  "4407": "everything ",
  "4408": "neutron",
  "4409": "things are ",
  "4410": "inste",
  "4411": "Ni",
  "4412": "dens",
  "4413": ".\nWe ",
  "4414": "process ",
  "4415": "because of the ",
  "4416": ":\n",
  "4417": "ate the ",
  "4418": ".\nEven ",
  "4419": "cosm",
  "4420": "pect",
  "4421": "happen ",
  "4422": "mete",
  "4423": "es.\nThere are ",
  "4424": "pri",
  "4425": "Galile",
  "4426": "period ",
  "4427": "solar ",
  "4428": "ground",
  "4429": "turn ",
  "4430": "Fran",
  "4431": "emic ",
  "4432": "enough to ",
  "4433": "west",
  "4434": "Taliban ",
  "4435": "bear",
  "4436": "medic",
  "4437": "beh",
  "4438": "behind ",
  "4439": "O ",
  "4440": "President ",
  "4441": ".)",
  "4442": "Portugu",
  "4443": ".\nCub",
  "4444": ".\nIt can be ",
  "4445": "Catholic",
  "4446": "history ",
  "4447": "so that ",
  "4448": "aboli",
  "4449": "adap",
  "4450": "ector ",
  "4451": "deriv",
  "4452": "let ",
  "4453": "allow ",
  "4454": "hapter ",
  "4455": "\"C",
  "4456": "want to ",
  "4457": "berri",
  "4458": "blue ",
  "4459": "e is the ",
  "4460": "27",
  "4461": "organic ",
  "4462": "lead ",
  "4463": "conver",
  "4464": "box",
  "4465": "economic",
  "4466": "usual ",
  "4467": "rail",
  "4468": "people use ",
  "4469": "first",
  "4470": "metaphor",
  "4471": "a circl",
  "4472": "less than ",
  "4473": "Cuban ",
  "4474": "rists ",
  "4475": "April and ",
  "4476": "ropolit",
  "4477": "ropolitan ",
  "4478": "ellip",
  "4479": "spiral ",
  "4480": "ydrogen ",
  "4481": "City",
  "4482": ".\nIndia ",
  "4483": "March and ",
  "4484": "month in the ",
  "4485": "umn",
  "4486": "clear ",
  "4487": "referr",
  "4488": "22",
  "4489": "peror ",
  "4490": "experience ",
  "4491": "e, and the ",
  "4492": "t or ",
  "4493": "tion and ",
  "4494": "India, ",
  "4495": "Greec",
  "4496": "subjec",
  "4497": "00s, ",
  "4498": "people think ",
  "4499": "nos",
  "4500": "below ",
  "4501": "in an ",
  "4502": "is also a ",
  "4503": "International ",
  "4504": "\", which ",
  "4505": "along ",
  "4506": "carbon di",
  "4507": "causes ",
  "4508": "problems ",
  "4509": "Car",
  "4510": "ing.\nThe ",
  "4511": "mother ",
  "4512": "ford ",
  "4513": "Prot",
  "4514": "try",
  "4515": "Alex",
  "4516": "eiv",
  "4517": "Queen ",
  "4518": "possibl",
  "4519": "private ",
  "4520": "wr",
  "4521": "Ri",
  "4522": "side ",
  "4523": "a in ",
  "4524": ", and a ",
  "4525": "most famous ",
  "4526": "er or ",
  "4527": "e.\nIt ",
  "4528": "ations of ",
  "4529": "going ",
  "4530": "ts are ",
  "4531": "aj",
  "4532": "plants, ",
  "4533": "bic",
  "4534": "etic ",
  "4535": "kep",
  "4536": "that makes ",
  "4537": "polic",
  "4538": "means the ",
  "4539": "arithmetic ",
  "4540": "ses",
  "4541": "addition ",
  "4542": "the same as ",
  "4543": ".\nWhen the ",
  "4544": "distanc",
  "4545": "important",
  "4546": "ations, ",
  "4547": "Zeal",
  "4548": "and, ",
  "4549": "Australia, ",
  "4550": "completely ",
  "4551": "democratic ",
  "4552": "feder",
  "4553": "parliam",
  "4554": "south ",
  "4555": "killed ",
  "4556": "leav",
  "4557": "lak",
  "4558": "Captain ",
  "4559": ".\nOften ",
  "4560": "might be ",
  "4561": "ts to ",
  "4562": "Liber",
  "4563": "Asia",
  "4564": "1970",
  "4565": "ummer ",
  "4566": "currently ",
  "4567": "Nob",
  "4568": "Nobel ",
  "4569": "wide ",
  "4570": "a sing",
  "4571": "did",
  "4572": "movies ",
  "4573": "Olymp",
  "4574": "known",
  "4575": "cust",
  "4576": "everyday ",
  "4577": "use of ",
  "4578": "abbrevi",
  "4579": "a word ",
  "4580": "name of the ",
  "4581": "NAS",
  "4582": ".\nDi",
  "4583": "He",
  "4584": "ef ",
  "4585": "n't ",
  "4586": "burn",
  "4587": "Mount ",
  "4588": "tells ",
  "4589": "ounce ",
  "4590": "straight ",
  "4591": "Am",
  "4592": "fall",
  "4593": "decis",
  "4594": "clear",
  "4595": "Islam ",
  "4596": "however, ",
  "4597": "agree ",
  "4598": "said to be ",
  "4599": "anyone ",
  "4600": "the other ",
  "4601": "vent",
  "4602": "words, ",
  "4603": "it can be ",
  "4604": "wher",
  "4605": "e.\nMany ",
  "4606": "even",
  "4607": "started to ",
  "4608": "research ",
  "4609": ") in ",
  "4610": "in the nor",
  "4611": "changing ",
  "4612": "order to ",
  "4613": "ici",
  "4614": ".\nModern ",
  "4615": ".\nChina ",
  "4616": "people have ",
  "4617": ", who ",
  "4618": "tru",
  "4619": "down",
  "4620": "act with ",
  "4621": "acceler",
  "4622": ".\nAtom",
  "4623": "elements are ",
  "4624": "Dem",
  "4625": "subst",
  "4626": "Russian ",
  "4627": "model ",
  "4628": "Sch",
  "4629": "clou",
  "4630": "ission ",
  "4631": ", so ",
  "4632": "amounts of ",
  "4633": "followed by ",
  "4634": "itself ",
  "4635": "gam",
  "4636": "hydrogen",
  "4637": "meteor",
  "4638": "nes",
  "4639": "looking ",
  "4640": "serve ",
  "4641": "site ",
  "4642": "revol",
  "4643": "sat",
  "4644": "launch",
  "4645": "there is a ",
  "4646": "Voyager ",
  "4647": "everal ",
  "4648": "thedr",
  "4649": "muscl",
  "4650": "ystem ",
  "4651": "metal",
  "4652": "t.\nThe ",
  "4653": "econd",
  "4654": "tex",
  "4655": "Med",
  "4656": "defe",
  "4657": ",\" ",
  "4658": "disp",
  "4659": "184",
  "4660": "republic",
  "4661": "restr",
  "4662": "audi ",
  "4663": "business",
  "4664": "projec",
  "4665": "seas ",
  "4666": "relativ",
  "4667": "relation",
  "4668": "they can ",
  "4669": "are often ",
  "4670": "difference ",
  "4671": "Beijing ",
  "4672": "foreign ",
  "4673": "that have ",
  "4674": "dium ",
  "4675": "dark ",
  "4676": "another",
  "4677": "179",
  "4678": "Belgium",
  "4679": "West ",
  "4680": "\u00c2\u00a0km",
  "4681": " or ",
  "4682": "scre",
  "4683": "Brazil ",
  "4684": "dry ",
  "4685": "compound ",
  "4686": "anything ",
  "4687": "es which ",
  "4688": "ea, ",
  "4689": "skin ",
  "4690": "friend",
  "4691": "ospher",
  "4692": "European Union",
  "4693": "wel",
  "4694": "Lak",
  "4695": "visited ",
  "4696": "plural ",
  "4697": "philosophy",
  "4698": "Ebol",
  "4699": "in common year",
  "4700": "\u00c4\u0093",
  "4701": "Galax",
  "4702": "rational ",
  "4703": "as Vegas ",
  "4704": "\u00c3\u0097 ",
  "4705": "orth",
  "4706": "\u00e2\u0088",
  "4707": "\u00e2\u0088\u0092",
  "4708": "planet's ",
  "4709": "Naur",
  "4710": "okly",
  "4711": "every year, ",
  "4712": "equiv",
  "4713": "equival",
  "4714": "comes from the Latin ",
  "4715": "theast ",
  "4716": "August",
  "4717": "calendar ",
  "4718": "added to the ",
  "4719": "divers",
  "4720": "inner ",
  "4721": "etr",
  "4722": "design ",
  "4723": "rather than ",
  "4724": ", then ",
  "4725": "pattern",
  "4726": "there was a ",
  "4727": "ularly ",
  "4728": ".\nIn this ",
  "4729": "made the ",
  "4730": "matter",
  "4731": "few",
  "4732": "huge ",
  "4733": "mech",
  "4734": "mechan",
  "4735": "them to ",
  "4736": "plus ",
  "4737": "re-",
  "4738": "shown ",
  "4739": "ties.\n",
  "4740": "states ",
  "4741": "Turing ",
  "4742": "born in ",
  "4743": "augh",
  "4744": "Co",
  "4745": "Irish ",
  "4746": "e.\nHe ",
  "4747": "protect ",
  "4748": "Roy",
  "4749": "no longer ",
  "4750": "age of ",
  "4751": "ers (",
  "4752": "hys",
  "4753": "present",
  "4754": "build ",
  "4755": "had to ",
  "4756": "royal ",
  "4757": "caused ",
  "4758": "Ap",
  "4759": "dou",
  "4760": "domes",
  "4761": "Mes",
  "4762": "e.\nPeople ",
  "4763": "gather",
  "4764": "forest",
  "4765": "easily ",
  "4766": "wash",
  "4767": "adding ",
  "4768": "selec",
  "4769": "improv",
  "4770": "egg",
  "4771": "s.\nG",
  "4772": "s.\nOther ",
  "4773": "hard to ",
  "4774": "ric",
  "4775": ".\nRe",
  "4776": "bey",
  "4777": "e, which ",
  "4778": "ani",
  "4779": "wants ",
  "4780": "\", and ",
  "4781": "standard ",
  "4782": ".\nBecause of this, ",
  "4783": "else",
  "4784": "ed as a ",
  "4785": "monarchy ",
  "4786": "Victor",
  "4787": "manag",
  "4788": "y or ",
  "4789": "Ven",
  "4790": "s which ",
  "4791": ".\nJ",
  "4792": "colonies ",
  "4793": "leader ",
  "4794": "ur ",
  "4795": "was also ",
  "4796": "church ",
  "4797": "rug",
  "4798": "le of ",
  "4799": "ig ",
  "4800": "ed in 18",
  "4801": "As",
  "4802": "across the ",
  "4803": "getting ",
  "4804": "ed about ",
  "4805": "came to ",
  "4806": "other countries ",
  "4807": "around the world",
  "4808": "2000",
  "4809": "economy",
  "4810": "choos",
  "4811": "won the ",
  "4812": "television ",
  "4813": "newsp",
  "4814": "newspap",
  "4815": "ib",
  "4816": "sell ",
  "4817": "mot",
  "4818": "Olympic ",
  "4819": "Gam",
  "4820": "196",
  "4821": "football ",
  "4822": "community",
  "4823": "recogniz",
  "4824": "eaten ",
  "4825": "ed, the ",
  "4826": "used, ",
  "4827": "words are ",
  "4828": "domin",
  "4829": "circum",
  "4830": "tries to ",
  "4831": "Sat",
  "4832": "side of the ",
  "4833": "sy",
  "4834": "mid",
  "4835": "around",
  "4836": "turned ",
  "4837": "in and ",
  "4838": "Ur",
  "4839": "order",
  "4840": "considered ",
  "4841": "tics ",
  "4842": "thought to be ",
  "4843": "reach ",
  "4844": "indigenous ",
  "4845": "adop",
  "4846": "11",
  "4847": "religion ",
  "4848": "systems ",
  "4849": "ing to the ",
  "4850": "made with ",
  "4851": "2,",
  "4852": "flav",
  "4853": "ling",
  "4854": "square ",
  "4855": "in the same ",
  "4856": "programm",
  "4857": "Arabic ",
  "4858": "can use ",
  "4859": "formula_22 ",
  "4860": "o (",
  "4861": "graph ",
  "4862": "if the ",
  "4863": "more than one ",
  "4864": "is called the \"",
  "4865": "further ",
  "4866": "ed.\n",
  "4867": "equal to ",
  "4868": ") of ",
  "4869": "Using the ",
  "4870": "piece of ",
  "4871": "nucleus",
  "4872": ".\nOne of the ",
  "4873": "\" is the ",
  "4874": "individual ",
  "4875": "atoms are ",
  "4876": "positive ",
  "4877": "extra ",
  "4878": "es.\nIt ",
  "4879": "a number of ",
  "4880": "lowest ",
  "4881": "pass ",
  "4882": "massive ",
  "4883": "comet",
  "4884": "night ",
  "4885": "al\" ",
  "4886": "astronomical ",
  "4887": "predic",
  "4888": "bright ",
  "4889": "allowed ",
  "4890": "space ",
  "4891": "instrument ",
  "4892": "lay",
  "4893": "closest ",
  "4894": "ved ",
  "4895": "rule ",
  "4896": "buildings ",
  "4897": "Cent",
  "4898": ".\nAn example ",
  "4899": "close to ",
  "4900": "make up ",
  "4901": "21",
  "4902": "towards ",
  "4903": "Soviet Union ",
  "4904": "fight ",
  "4905": "ivil ",
  "4906": "respon",
  "4907": "ai ",
  "4908": "province ",
  "4909": "is divided into ",
  "4910": ".)\n",
  "4911": "African ",
  "4912": "os ",
  "4913": "necess",
  "4914": "\u00c3\u00a9 ",
  "4915": "developing ",
  "4916": "Italy, ",
  "4917": "France, ",
  "4918": "rate ",
  "4919": "a long time",
  "4920": "ube ",
  "4921": "dol",
  "4922": "es like ",
  "4923": "\"), ",
  "4924": "eum",
  "4925": "what they ",
  "4926": "there is no ",
  "4927": "industrial ",
  "4928": "actions ",
  "4929": "mob",
  "4930": "Second ",
  "4931": "instruc",
  "4932": "thes",
  "4933": "sional ",
  "4934": "even though ",
  "4935": "ual",
  "4936": "original ",
  "4937": "North America",
  "4938": "is the only ",
  "4939": "es.\nIt is ",
  "4940": "longest ",
  "4941": "calculat",
  "4942": "electronic ",
  "4943": "thick",
  "4944": "roughly ",
  "4945": "urface ",
  "4946": "crat",
  "4947": "nation ",
  "4948": "ised ",
  "4949": "37",
  "4950": "definition ",
  "4951": "Sain",
  "4952": "shop",
  "4953": "Green",
  "4954": "those who ",
  "4955": "website ",
  "4956": "websit",
  "4957": "athematic",
  "4958": "rid",
  "4959": "Christ",
  "4960": "giving ",
  "4961": "freed",
  "4962": "rhythm",
  "4963": "28 ",
  "4964": "Wiki",
  "4965": "Devil ",
  "4966": "path",
  "4967": "Danish ",
  "4968": "dead ",
  "4969": "esh",
  "4970": "wear ",
  "4971": "\u00c2\u00a0\u00c2\u00b0C",
  "4972": "ghost",
  "4973": "Island ",
  "4974": "femal",
  "4975": "Hon",
  "4976": "elium ",
  "4977": "city's ",
  "4978": "Microsoft ",
  "4979": "days are exactly ",
  "4980": "June of the ",
  "4981": ".\nIn years immediately before common years, ",
  "4982": "Hemisphere ",
  "4983": ".\nAt the ",
  "4984": "eigh",
  "4985": "ix",
  "4986": "added ",
  "4987": "e.\nSome ",
  "4988": "due to ",
  "4989": "tile ",
  "4990": "flo",
  "4991": ".\nIsl",
  "4992": "birth",
  "4993": "myth",
  "4994": ".\nIn other ",
  "4995": "collec",
  "4996": "that has ",
  "4997": ", is ",
  "4998": "V ",
  "4999": "referred to ",
  "5000": "quanti",
  "5001": ".\nAlso, ",
  "5002": "Vall",
  "5003": "mixtur",
  "5004": "ight of ",
  "5005": "send ",
  "5006": "number is ",
  "5007": "sail",
  "5008": "occas",
  "5009": "produced ",
  "5010": "evolution ",
  "5011": "band",
  "5012": "iron ",
  "5013": "execu",
  "5014": "with their ",
  "5015": "ast of ",
  "5016": "Africa",
  "5017": "scientist",
  "5018": "Wall",
  "5019": "who were ",
  "5020": "Dubl",
  "5021": "Alexand",
  "5022": "lig",
  "5023": "mess",
  "5024": "commer",
  "5025": "dipl",
  "5026": "receiv",
  "5027": "ille",
  "5028": "ory ",
  "5029": "supported ",
  "5030": "isset",
  "5031": "Canada, ",
  "5032": "running ",
  "5033": "Tel",
  "5034": "fat",
  "5035": "River",
  "5036": "ers in ",
  "5037": "Ira",
  "5038": "Iraq",
  "5039": "200 ",
  "5040": "wil",
  "5041": "can only ",
  "5042": ".\nThis is because ",
  "5043": "Wh",
  "5044": "kill ",
  "5045": "rig",
  "5046": "produce ",
  "5047": "meat ",
  "5048": "s on the ",
  "5049": "mathematics, ",
  "5050": "subtr",
  "5051": ".\nComputer",
  "5052": "the symbol",
  "5053": "ector",
  "5054": "ed with the ",
  "5055": "er is ",
  "5056": "overe",
  "5057": "onic ",
  "5058": "known for its ",
  "5059": "millions of ",
  "5060": "Hea",
  "5061": "State ",
  "5062": "cens",
  "5063": "is also the ",
  "5064": "anced ",
  "5065": "events ",
  "5066": "\".\nThis ",
  "5067": "k of ",
  "5068": "metal ",
  "5069": "p ",
  "5070": "ships ",
  "5071": "Cook ",
  "5072": "fron",
  "5073": "a large ",
  "5074": "George ",
  "5075": "was discover",
  "5076": "for many ",
  "5077": "ia, and ",
  "5078": "elections ",
  "5079": "became the first ",
  "5080": "join ",
  "5081": "come to ",
  "5082": "won ",
  "5083": "75",
  "5084": "peac",
  "5085": "poor",
  "5086": "immigran",
  "5087": "Feder",
  "5088": "Hen",
  "5089": "iter",
  "5090": "Be",
  "5091": "ger",
  "5092": "1990",
  "5093": "ball, ",
  "5094": "species",
  "5095": "entirely ",
  "5096": "American English",
  "5097": "language, ",
  "5098": "frequ",
  "5099": "British English ",
  "5100": "custom",
  "5101": "e.g.\n",
  "5102": "variable ",
  "5103": "sem",
  "5104": "s can be ",
  "5105": "to show ",
  "5106": "fact ",
  "5107": ").\nThis ",
  "5108": "princi",
  "5109": "Adam",
  "5110": "an Angel ",
  "5111": "lets ",
  "5112": "a M",
  "5113": "es.\nE",
  "5114": "how they ",
  "5115": "single ",
  "5116": "ad, ",
  "5117": "light, ",
  "5118": "speed",
  "5119": "ark ",
  "5120": "self ",
  "5121": "conc",
  "5122": "being",
  "5123": "s), ",
  "5124": "ideas",
  "5125": "put",
  "5126": "network ",
  "5127": ".\nThere are many different ",
  "5128": "a and the ",
  "5129": "lived ",
  "5130": "elected ",
  "5131": "South America",
  "5132": "disease ",
  "5133": "a small ",
  "5134": "ely",
  "5135": "variabl",
  "5136": "equation ",
  "5137": "solve ",
  "5138": "rules of ",
  "5139": "starting ",
  "5140": "ations and ",
  "5141": "a-",
  "5142": "Mu",
  "5143": "way, ",
  "5144": "er's ",
  "5145": "ine, ",
  "5146": "branch",
  "5147": "1 and ",
  "5148": "amples of ",
  "5149": "compounds ",
  "5150": "es.\nA ",
  "5151": "400",
  "5152": "u, ",
  "5153": "theory ",
  "5154": "umn ",
  "5155": "model",
  "5156": "travel ",
  "5157": "zero",
  "5158": "99",
  "5159": "fuel",
  "5160": "smallest ",
  "5161": "magnetic field",
  "5162": "e.\nThere are ",
  "5163": "fut",
  "5164": "future",
  "5165": "two main ",
  "5166": "the siz",
  "5167": "ton, ",
  "5168": "Milky Way",
  "5169": "Hub",
  "5170": "regular ",
  "5171": "satell",
  "5172": "omen",
  "5173": "source ",
  "5174": "better",
  "5175": "is in ",
  "5176": "differenc",
  "5177": "black hol",
  "5178": "view ",
  "5179": "spacecraft ",
  "5180": "Satur",
  "5181": "difficult to ",
  "5182": ".\nSeveral ",
  "5183": "es.\nPeople ",
  "5184": "within the ",
  "5185": "e from ",
  "5186": "rocks ",
  "5187": "extinc",
  "5188": "summ",
  "5189": "known as \"",
  "5190": "evidence ",
  "5191": "bed",
  "5192": "century ",
  "5193": "dynas",
  "5194": "independence ",
  "5195": "firm",
  "5196": "situ",
  "5197": ".\nBy the ",
  "5198": "in L",
  "5199": "members of the ",
  "5200": "led by ",
  "5201": "former ",
  "5202": ".\nAccording to ",
  "5203": "ict",
  "5204": "Portuguese ",
  "5205": "Ocean ",
  "5206": "Republic",
  "5207": "one of the largest ",
  "5208": "Cr",
  "5209": "eventually ",
  "5210": "e), ",
  "5211": "en (",
  "5212": "Council",
  "5213": "oral ",
  "5214": "branch of ",
  "5215": "abolism",
  "5216": "membran",
  "5217": "lack ",
  "5218": "s when ",
  "5219": "devic",
  "5220": "e \"",
  "5221": "CD",
  "5222": "software ",
  "5223": "foot ",
  "5224": "credit",
  "5225": "some of ",
  "5226": "fast sausag",
  "5227": "fro",
  "5228": "nal ",
  "5229": "contr",
  "5230": "y.\n",
  "5231": "board",
  "5232": "stories ",
  "5233": "City of ",
  "5234": "an (",
  "5235": "are in ",
  "5236": "contain",
  "5237": "ry, ",
  "5238": "science, ",
  "5239": "makes it ",
  "5240": "\u00c3\u00a8",
  "5241": ".\nTwo ",
  "5242": ".\nOver ",
  "5243": "base ",
  "5244": "thm ",
  "5245": "veh",
  "5246": "vehic",
  "5247": "fit ",
  "5248": "contain ",
  "5249": ".\nCon",
  "5250": "hypo",
  "5251": "influence ",
  "5252": "in its ",
  "5253": "economy ",
  "5254": "recent ",
  "5255": "chorizo ",
  "5256": "To ",
  "5257": "er (",
  "5258": "eib",
  "5259": "eibn",
  "5260": "eibniz",
  "5261": "one's ",
  "5262": "comets ",
  "5263": "ilosoph",
  "5264": "Cubans ",
  "5265": "Castro ",
  "5266": "enh",
  "5267": "petro",
  "5268": "feel",
  "5269": "virus ",
  "5270": "web ",
  "5271": "s.\nOn ",
  "5272": "fish are ",
  "5273": "inher",
  "5274": "\u00c2\u00a0million ",
  "5275": "ammar ",
  "5276": "olul",
  "5277": "pint ",
  "5278": ".\nJapan ",
  "5279": "moons ",
  "5280": "MediaWiki ",
  "5281": "Stre",
  "5282": ".\nMercur",
  "5283": "prayer hall",
  "5284": "Neptune's ",
  "5285": "Brookly",
  "5286": "Manhattan ",
  "5287": "September and ",
  "5288": "every year, as each other's ",
  "5289": "days) apart",
  "5290": "seasonal ",
  "5291": "seasonal equival",
  "5292": "th month of the year in the ",
  "5293": "coming between ",
  "5294": ", when ",
  "5295": "31 ",
  "5296": "range of ",
  "5297": "tivi",
  "5298": "author",
  "5299": "affect ",
  "5300": "to make a ",
  "5301": "ting and ",
  "5302": "lith",
  "5303": "China, ",
  "5304": "Ti",
  "5305": "dynast",
  "5306": "aiss",
  "5307": "figur",
  "5308": "Roman",
  "5309": "property ",
  "5310": "copy",
  "5311": "alphabet",
  "5312": "team ",
  "5313": "\"A",
  "5314": "\".\n",
  "5315": "eph",
  "5316": "modi",
  "5317": ", in the ",
  "5318": "algebra",
  "5319": "ight, ",
  "5320": "carbon diox",
  "5321": "people's ",
  "5322": "cold ",
  "5323": "over a ",
  "5324": "ater, ",
  "5325": "occasion",
  "5326": "Ox",
  "5327": "years ago, ",
  "5328": ".\nHum",
  "5329": "consist",
  "5330": "const",
  "5331": "autonomous ",
  "5332": "23 ",
  "5333": "Wil",
  "5334": "father ",
  "5335": "he was ",
  "5336": "23",
  "5337": "ficial ",
  "5338": "secre",
  "5339": "Naz",
  "5340": "was one of the ",
  "5341": "y, but ",
  "5342": "AC",
  "5343": "paper ",
  "5344": "possible to ",
  "5345": "Cam",
  "5346": "choose ",
  "5347": "reason ",
  "5348": "fusion ",
  "5349": "peti",
  "5350": "ittle ",
  "5351": "units ",
  "5352": "sell",
  "5353": "Smi",
  "5354": "older ",
  "5355": "minut",
  "5356": "ll",
  "5357": "er, and ",
  "5358": "intos",
  "5359": "Su",
  "5360": "is a type of ",
  "5361": "spic",
  "5362": "degre",
  "5363": "80 ",
  "5364": "le, ",
  "5365": "goat",
  "5366": "umb",
  "5367": "environment ",
  "5368": "table",
  "5369": "tast",
  "5370": "plant ",
  "5371": "used to make ",
  "5372": "here ",
  "5373": "seri",
  "5374": "trying to ",
  "5375": "distri",
  "5376": "numbers, ",
  "5377": "conf",
  "5378": "the symbol ",
  "5379": "commut",
  "5380": "300",
  "5381": "ool",
  "5382": "tle",
  "5383": "ans are ",
  "5384": "Nation",
  "5385": "parliament",
  "5386": "coast ",
  "5387": "billi",
  "5388": "effec",
  "5389": "lived in ",
  "5390": "example of ",
  "5391": "es.\nThis ",
  "5392": ".\nSometimes, ",
  "5393": "eph ",
  "5394": "poor ",
  "5395": "sentenc",
  "5396": "rying ",
  "5397": "Bay ",
  "5398": "flat ",
  "5399": " was ",
  "5400": "care",
  "5401": "among the ",
  "5402": "cooking ",
  "5403": "s.\nAll ",
  "5404": "ers were ",
  "5405": "Law",
  "5406": "\u00c2\u00a0km ",
  "5407": "es) ",
  "5408": "else ",
  "5409": "hard",
  "5410": "numbers of ",
  "5411": "across ",
  "5412": "wanted ",
  "5413": "Pat",
  "5414": ".\nIn 193",
  "5415": "things like ",
  "5416": "ty of ",
  "5417": "Mal",
  "5418": "in the world, ",
  "5419": "immigrants ",
  "5420": "laws ",
  "5421": "head of ",
  "5422": "avid ",
  "5423": "accepted ",
  "5424": "learning ",
  "5425": "anj",
  "5426": "Nobel Priz",
  "5427": "pop ",
  "5428": "ush ",
  "5429": "radio ",
  "5430": "\" of ",
  "5431": "ake ",
  "5432": ") and the ",
  "5433": "neighbour",
  "5434": "reduc",
  "5435": "Euc",
  "5436": "fire",
  "5437": "unci",
  "5438": "wild ",
  "5439": "Space ",
  "5440": "comes from the Greek ",
  "5441": "plural",
  "5442": "moves ",
  "5443": "would have ",
  "5444": "spo",
  "5445": "iel ",
  "5446": "says that ",
  "5447": "asc",
  "5448": "what the ",
  "5449": "earlier ",
  "5450": "discus",
  "5451": "opin",
  "5452": "ask ",
  "5453": "are, ",
  "5454": "aspec",
  "5455": "nature",
  "5456": "appli",
  "5457": "ted",
  "5458": "ument ",
  "5459": "languages are ",
  "5460": "extremely ",
  "5461": "2016",
  "5462": "\u00e2\u0080\u0099s ",
  "5463": "North America ",
  "5464": "als",
  "5465": "centi",
  "5466": "in 16",
  "5467": "related to ",
  "5468": "soft ",
  "5469": "trop",
  "5470": "skin",
  "5471": "Red ",
  "5472": "different",
  "5473": "different types of ",
  "5474": "1920",
  "5475": "Abrahamic ",
  "5476": "(a ",
  "5477": "equation",
  "5478": "formula_3 ",
  "5479": "es that are ",
  "5480": "owever ",
  "5481": "the word \"",
  "5482": "algori",
  "5483": "written in ",
  "5484": "declar",
  "5485": "refl",
  "5486": "89",
  "5487": "colleg",
  "5488": "difficult ",
  "5489": "agnetic ",
  "5490": "protons ",
  "5491": "radio",
  "5492": "\u00ce\u00bf",
  "5493": "philosophical ",
  "5494": "ier ",
  "5495": "suggested ",
  "5496": "solid ",
  "5497": "table ",
  "5498": "that a ",
  "5499": "stable ",
  "5500": "around the Sun",
  "5501": "an \"",
  "5502": "p, ",
  "5503": "measurement",
  "5504": "able, ",
  "5505": "according to ",
  "5506": "mom",
  "5507": "left",
  "5508": "ed to a ",
  "5509": "to become ",
  "5510": "helium ",
  "5511": "hit ",
  "5512": "cientific ",
  "5513": "etic",
  "5514": "explain ",
  "5515": "center of the ",
  "5516": "Greek",
  "5517": "center of ",
  "5518": "closely ",
  "5519": "galaxy",
  "5520": "outside the ",
  "5521": "orig",
  "5522": "origin ",
  "5523": ".\nThe name ",
  "5524": "ible ",
  "5525": "process of ",
  "5526": "y\n\n",
  "5527": "tion, ",
  "5528": "Solar System ",
  "5529": ".\nSt",
  "5530": "understand the ",
  "5531": "s to be ",
  "5532": "es.\nMany ",
  "5533": "churches ",
  "5534": "Ind",
  "5535": ".\nDec",
  "5536": "fghanist",
  "5537": "s and other ",
  "5538": "probe ",
  "5539": "s) and ",
  "5540": "Regi",
  "5541": "a lot ",
  "5542": "country.\nThe ",
  "5543": "one-",
  "5544": "oth ",
  "5545": "is the largest ",
  "5546": "conquer",
  "5547": "conquered ",
  "5548": "invasion ",
  "5549": "stay ",
  "5550": "Civil ",
  "5551": "civil ",
  "5552": "Saudi ",
  "5553": "ror",
  "5554": "hold",
  "5555": "cities in ",
  "5556": "Democr",
  "5557": "th largest ",
  "5558": "border",
  "5559": "s; ",
  "5560": "Sal",
  "5561": "us of ",
  "5562": "capital of the ",
  "5563": "countries.\n",
  "5564": "recorded in ",
  "5565": "\n\nM",
  "5566": "e.\nOn",
  "5567": "ated by ",
  "5568": "of which ",
  "5569": "unique ",
  "5570": "ports ",
  "5571": "enter",
  "5572": "ivor",
  "5573": "formula_9 ",
  "5574": "cool",
  "5575": "named after ",
  "5576": "instructions ",
  "5577": "does not have ",
  "5578": "link",
  "5579": "Kingdom",
  "5580": "foreign",
  "5581": "lem",
  "5582": "a single ",
  "5583": "upper ",
  "5584": "dark",
  "5585": "od of ",
  "5586": "cub",
  "5587": "... ",
  "5588": ".\nBelgi",
  "5589": "quarter",
  "5590": "-speaking ",
  "5591": "Chem",
  "5592": "mathematicians ",
  "5593": "ES",
  "5594": "Le ",
  "5595": "ymor",
  "5596": "undam",
  "5597": ".\nThere is a ",
  "5598": "box ",
  "5599": "thinking ",
  "5600": "based on the ",
  "5601": "multiple ",
  "5602": "share ",
  "5603": "bought ",
  "5604": "makes the ",
  "5605": "it to ",
  "5606": "tarc",
  "5607": "corn",
  "5608": "ellow ",
  "5609": "Zh",
  "5610": "adjec",
  "5611": "city in ",
  "5612": "29 ",
  "5613": "week",
  "5614": "imit",
  "5615": "urban ",
  "5616": " to ",
  "5617": "bad",
  "5618": "dead",
  "5619": "decide ",
  "5620": "transpor",
  "5621": "shaped ",
  "5622": "ies are ",
  "5623": "ness",
  "5624": "iction",
  "5625": "beha",
  "5626": "behavi",
  "5627": "jur",
  "5628": "calculus ",
  "5629": "a sub",
  "5630": "critic",
  "5631": "stick ",
  "5632": "the Sun ",
  "5633": "kary",
  "5634": "\n\nUsing the ",
  "5635": "2018",
  "5636": "Wikipe",
  "5637": "Day ",
  "5638": "8.",
  "5639": "dies",
  "5640": "gravity ",
  "5641": "Ebola ",
  "5642": "names",
  "5643": "leather ",
  "5644": "ana",
  "5645": ".\nDuring ",
  "5646": "metropolitan ",
  "5647": "Great Lak",
  "5648": "million, ",
  "5649": "Google ",
  "5650": "adver",
  "5651": "olok",
  "5652": "island is ",
  "5653": "<nowiki>",
  "5654": "</",
  "5655": "</nowiki>",
  "5656": "number system ",
  "5657": "litr",
  "5658": "New York City",
  "5659": "Mercury's ",
  "5660": "prayers ",
  "5661": "Manhattan",
  "5662": "Bronx",
  "5663": "Staten ",
  "5664": "s to have ",
  "5665": "making it ",
  "5666": "35 weeks (",
  "5667": "35 weeks (24",
  "5668": "35 weeks (245 ",
  "5669": "February and ",
  "5670": "Southern Hemispher",
  "5671": "Christianity, ",
  "5672": "ox ",
  "5673": "it can ",
  "5674": "named after the ",
  "5675": "beginning of the ",
  "5676": "s about ",
  "5677": "determin",
  "5678": "ed as the ",
  "5679": "summer ",
  "5680": "activi",
  "5681": "art, ",
  "5682": "e, such as ",
  "5683": "that can be ",
  "5684": "called a \"",
  "5685": "hop",
  "5686": "cit",
  "5687": "creativ",
  "5688": "ting, ",
  "5689": "something is ",
  "5690": "done by ",
  "5691": "spirit ",
  "5692": "Renaiss",
  "5693": "science and ",
  "5694": "es, but ",
  "5695": "up and ",
  "5696": "regularly ",
  "5697": "socie",
  "5698": "industry ",
  "5699": "functions ",
  "5700": "used as a ",
  "5701": "case ",
  "5702": "\u00c4\u0081",
  "5703": "Italy",
  "5704": "tiny ",
  "5705": "nitro",
  "5706": "blood",
  "5707": ".\nPl",
  "5708": "e.\nThey ",
  "5709": "that we ",
  "5710": "carbon",
  "5711": "mu",
  "5712": "ch, ",
  "5713": "wing",
  "5714": "classical ",
  "5715": "contri",
  "5716": "oz",
  "5717": "heavy ",
  "5718": "iner",
  "5719": "plate ",
  "5720": "has its own ",
  "5721": "America, ",
  "5722": "are called \"",
  "5723": "six",
  "5724": "coast of ",
  "5725": "munic",
  "5726": "was an ",
  "5727": "what is ",
  "5728": "artificial ",
  "5729": "diplom",
  "5730": "estimated ",
  "5731": "autom",
  "5732": "died ",
  "5733": "\".\nA ",
  "5734": "could not ",
  "5735": "e.\nD",
  "5736": ".\nAlthough ",
  "5737": ".\nWhile ",
  "5738": "1950",
  "5739": "taking ",
  "5740": "2013",
  "5741": ".\nAs a ",
  "5742": "der ",
  "5743": "played ",
  "5744": "ospit",
  "5745": "Hung",
  "5746": "young",
  "5747": "Macintos",
  "5748": "aus",
  "5749": "wood ",
  "5750": ".\nFarm",
  "5751": "money to ",
  "5752": "equip",
  "5753": "provide ",
  "5754": "s are often ",
  "5755": "also use ",
  "5756": "als, ",
  "5757": "milk ",
  "5758": "kept ",
  "5759": "ety of ",
  "5760": ":\n\nThe ",
  "5761": "weight ",
  "5762": "operations ",
  "5763": "empl",
  "5764": "ed out ",
  "5765": "s, so ",
  "5766": "wants to ",
  "5767": "change the ",
  "5768": "sovere",
  "5769": "located ",
  "5770": "ic and ",
  "5771": "New Zeal",
  "5772": "reme ",
  "5773": "very large ",
  "5774": "middle of the ",
  "5775": "is mostly ",
  "5776": "Tor",
  "5777": "may",
  "5778": "ply ",
  "5779": "ones ",
  "5780": "r ",
  "5781": "where they ",
  "5782": "to find ",
  "5783": "horiz",
  "5784": "bit ",
  "5785": "-one ",
  "5786": "carrying ",
  "5787": "harb",
  "5788": "was called ",
  "5789": "oon ",
  "5790": "fat ",
  "5791": "midd",
  "5792": "Thom",
  "5793": "search ",
  "5794": "otic ",
  "5795": "55",
  "5796": "right to ",
  "5797": "er for ",
  "5798": "it had ",
  "5799": "Austria",
  "5800": "batt",
  "5801": ".\nMore than ",
  "5802": "Great D",
  "5803": "39",
  "5804": "in 194",
  "5805": ".\nLater ",
  "5806": "1980",
  "5807": "encour",
  "5808": "pay",
  "5809": "aily ",
  "5810": "2 and ",
  "5811": "-based ",
  "5812": "Internet",
  "5813": "some other ",
  "5814": "ent in ",
  "5815": "\n\n\n\n",
  "5816": "es include ",
  "5817": "Lou",
  "5818": "surrounding ",
  "5819": "escap",
  "5820": "sends ",
  "5821": "New Testam",
  "5822": "throughout the ",
  "5823": "cherub",
  "5824": "Mos",
  "5825": "mand",
  "5826": "-d ",
  "5827": "talk",
  "5828": "asks ",
  "5829": "saying ",
  "5830": "that",
  "5831": "zek",
  "5832": "zekiel ",
  "5833": "eing ",
  "5834": "28",
  "5835": "look like ",
  "5836": "s.\nBut ",
  "5837": "lose ",
  "5838": ".\nNot ",
  "5839": "top of the ",
  "5840": "himself ",
  "5841": "s.\nHowever, ",
  "5842": "value ",
  "5843": "argument",
  "5844": "considered to be ",
  "5845": "Cari",
  "5846": "Carib",
  "5847": "Caribbe",
  "5848": "trib",
  "5849": "place to ",
  "5850": "les ",
  "5851": "Si",
  "5852": "plan ",
  "5853": "instruments ",
  "5854": "fy ",
  "5855": "belong ",
  "5856": ".\nAppl",
  "5857": "southern ",
  "5858": "cid",
  "5859": "centimetr",
  "5860": "lightly ",
  "5861": "ed in a ",
  "5862": "es as ",
  "5863": "very important ",
  "5864": "using a ",
  "5865": "scientific ",
  "5866": "a\" ",
  "5867": "cooked ",
  "5868": "will have ",
  "5869": "NA ",
  "5870": "from",
  "5871": "e are ",
  "5872": "European Union ",
  "5873": "rar",
  "5874": "rare ",
  "5875": "Michig",
  "5876": "spirit",
  "5877": "ae",
  "5878": "theistic ",
  "5879": "broken ",
  "5880": "omet",
  "5881": "mad ",
  "5882": "\u00c4\u00ab",
  "5883": "These ",
  "5884": "step",
  "5885": "s such as ",
  "5886": "acting ",
  "5887": "tion is ",
  "5888": "ness ",
  "5889": "rules are ",
  "5890": "the smallest ",
  "5891": "s.\nOne ",
  "5892": "them.\nThe ",
  "5893": "spli",
  "5894": "split ",
  "5895": "philosopher ",
  "5896": "Einste",
  "5897": "periodic ",
  "5898": "happened ",
  "5899": "very small ",
  "5900": "protons and ",
  "5901": "cular ",
  "5902": "cloud",
  "5903": "to be",
  "5904": "quark",
  "5905": "change in ",
  "5906": "energy to ",
  "5907": "el-",
  "5908": "abs",
  "5909": "complete ",
  "5910": ".\nNo ",
  "5911": "es, or ",
  "5912": "numbers",
  "5913": ".\nThe \"",
  "5914": "can have ",
  "5915": "form a ",
  "5916": "fill",
  "5917": "magnet",
  "5918": "quickly",
  "5919": "tion of the ",
  "5920": "topic",
  "5921": "perman",
  "5922": "Earth is ",
  "5923": "eda ",
  "5924": "pand",
  "5925": "accur",
  "5926": "infr",
  "5927": "phen",
  "5928": "ence, ",
  "5929": "may not be ",
  "5930": "ellar ",
  "5931": "profes",
  "5932": "can do ",
  "5933": "notic",
  "5934": "Africa, ",
  "5935": "decor",
  "5936": ", which was ",
  "5937": "ower ",
  "5938": "anatom",
  "5939": "ross ",
  "5940": "s, such as the ",
  "5941": "system, ",
  "5942": ".\nLi",
  "5943": "s, like ",
  "5944": "later",
  "5945": "oods ",
  "5946": "Afghan ",
  "5947": "bird",
  "5948": "used to be ",
  "5949": "the second",
  "5950": "es.\nB",
  "5951": "capital, ",
  "5952": "vill",
  "5953": "product",
  "5954": "controlled ",
  "5955": "s from ",
  "5956": "giant ",
  "5957": "territory ",
  "5958": "78",
  "5959": "decad",
  "5960": "ict ",
  "5961": "most countries ",
  "5962": "1, the ",
  "5963": "with many ",
  "5964": "ist of ",
  "5965": "Zam",
  "5966": "Atlantic Ocean",
  "5967": "natural resourc",
  "5968": "Lu",
  "5969": "UN",
  "5970": "to the sou",
  "5971": "Oct",
  "5972": ".\nArgentin",
  "5973": "ality",
  "5974": "highly ",
  "5975": "gol",
  "5976": "Ser",
  "5977": "west of ",
  "5978": "...",
  "5979": "alist ",
  "5980": "uras",
  "5981": "-made ",
  "5982": "expen",
  "5983": "s are called ",
  "5984": "lakes ",
  "5985": "million",
  "5986": "Spe",
  "5987": "lu",
  "5988": "\"b",
  "5989": "e\n\nA ",
  "5990": "start ",
  "5991": "drive ",
  "5992": "mobile ",
  "5993": "tom ",
  "5994": "court",
  "5995": "known as the \"",
  "5996": "Chapter ",
  "5997": "to keep ",
  "5998": "centuries ",
  "5999": "brow",
  "6000": "internal ",
  "6001": "es.\nIn the ",
  "6002": "cuis",
  "6003": "choic",
  "6004": "becoming ",
  "6005": "United Kingdom",
  "6006": "keyboard",
  "6007": "talk about ",
  "6008": "University, ",
  "6009": "warm ",
  "6010": "', ",
  "6011": "erc",
  "6012": "1% ",
  "6013": "system of ",
  "6014": "monarch ",
  "6015": "style of ",
  "6016": "porary ",
  "6017": "s include ",
  "6018": ".\nWith ",
  "6019": "Spani",
  "6020": "dish ",
  "6021": "on Mar",
  "6022": "+ ",
  "6023": "drug",
  "6024": "binary ",
  "6025": "spend ",
  "6026": "EN",
  "6027": "all-",
  "6028": "internet ",
  "6029": ".\nY",
  "6030": "disk ",
  "6031": "tarctic",
  "6032": "on the sou",
  "6033": ", many ",
  "6034": "market ",
  "6035": "in the world.\nThe ",
  "6036": "holi",
  "6037": "es.\nN",
  "6038": "icens",
  "6039": "capac",
  "6040": "ities ",
  "6041": "fai",
  "6042": "on their ",
  "6043": "at all",
  "6044": "years.\nThe ",
  "6045": "es.\nD",
  "6046": "33",
  "6047": "center",
  "6048": "Greater ",
  "6049": "from one ",
  "6050": "sky",
  "6051": "ers.\n",
  "6052": "killing ",
  "6053": "Leibniz",
  "6054": "infinite ",
  "6055": "ity and ",
  "6056": "rectang",
  "6057": "coins ",
  "6058": "pref",
  "6059": "eur",
  "6060": "freedom ",
  "6061": "integ",
  "6062": "approxim",
  "6063": "brown ",
  "6064": ".\nCuba ",
  "6065": "twel",
  "6066": "World W",
  "6067": "parent",
  "6068": "mac",
  "6069": "home",
  "6070": "Eucli",
  "6071": "both the ",
  "6072": "Sea ",
  "6073": ".\nDenmark ",
  "6074": "called the \"",
  "6075": "record ",
  "6076": "encyclopedias ",
  "6077": "knowledge ",
  "6078": "%), ",
  "6079": "silic",
  "6080": "the surfac",
  "6081": "City, ",
  "6082": "to other ",
  "6083": "ecos",
  "6084": "reproduc",
  "6085": "Cali",
  "6086": "specific",
  "6087": ".\nIn a ",
  "6088": "philosophy ",
  "6089": "\u00c2\u00a0billion ",
  "6090": ".\nFinland ",
  "6091": "); ",
  "6092": "storm ",
  "6093": ".\nMon",
  "6094": "gho",
  "6095": "advertis",
  "6096": "elliptical ",
  "6097": "olulu ",
  "6098": "Oah",
  "6099": ".\nHydrogen ",
  "6100": ".\nHelium ",
  "6101": "pint",
  "6102": "immune system ",
  "6103": "ulti",
  "6104": "osph",
  "6105": "link ",
  "6106": "Madrid",
  "6107": "pian",
  "6108": "music was ",
  "6109": "Mosqu",
  "6110": "minar",
  "6111": "orthograph",
  "6112": "spring ",
  "6113": "hemisphere, ",
  "6114": "ire",
  "6115": "start of the ",
  "6116": "month, ",
  "6117": "celebrate ",
  "6118": "bring ",
  "6119": "Gregorian calendar, ",
  "6120": "us Ca",
  "6121": "us Caes",
  "6122": "created the ",
  "6123": ", in ",
  "6124": "ties in ",
  "6125": "creating ",
  "6126": "experienc",
  "6127": "practical ",
  "6128": "cra",
  "6129": "artist",
  "6130": "broad",
  "6131": "plas",
  "6132": "content",
  "6133": "mind",
  "6134": "impact ",
  "6135": "preci",
  "6136": "pret",
  "6137": "civilization",
  "6138": "window",
  "6139": "Leon",
  "6140": "a V",
  "6141": "lap",
  "6142": "es such as ",
  "6143": "think that ",
  "6144": "vow",
  "6145": "TV ",
  "6146": "writing",
  "6147": "alphabet ",
  "6148": "are in the ",
  "6149": "father",
  "6150": ", as ",
  "6151": "e.\nA",
  "6152": "perc",
  "6153": "acid ",
  "6154": "hot and ",
  "6155": "Some ",
  "6156": "fewer ",
  "6157": "mill",
  "6158": "pressur",
  "6159": "vent ",
  "6160": "changes in ",
  "6161": "long-",
  "6162": "for exampl",
  "6163": "Bas",
  "6164": "has two ",
  "6165": "cities",
  "6166": "ing\n\n",
  "6167": "Sar",
  "6168": "went to ",
  "6169": "Bor",
  "6170": "Protest",
  "6171": "modern",
  "6172": "sen",
  "6173": "Germany",
  "6174": ".\nIn 201",
  "6175": "ed his ",
  "6176": "5 to ",
  "6177": "sex ",
  "6178": "Hous",
  "6179": "poison",
  "6180": "medical ",
  "6181": "laws of ",
  "6182": "Canadi",
  "6183": ".\nShe ",
  "6184": "young ",
  "6185": "child ",
  "6186": "est-",
  "6187": "Smith",
  "6188": "\"D",
  "6189": "parents ",
  "6190": "2010",
  "6191": "Mari",
  "6192": "e.\nIt is ",
  "6193": "Fer",
  "6194": "soldi",
  "6195": "away",
  "6196": "kind ",
  "6197": "There are ",
  "6198": ", and many ",
  "6199": "employ",
  "6200": "type",
  "6201": ", called ",
  "6202": "addi",
  "6203": "1 is ",
  "6204": "is the \"",
  "6205": "demon",
  "6206": "column",
  "6207": "meters ",
  "6208": "east of ",
  "6209": "the same as the ",
  "6210": "\"c",
  "6211": "it is called ",
  "6212": "27 ",
  "6213": "were the ",
  "6214": "world's largest ",
  "6215": "flower ",
  "6216": "s: the ",
  "6217": "constitutional ",
  "6218": "(which ",
  "6219": ".\nThe population ",
  "6220": "26 ",
  "6221": "500 ",
  "6222": "in one ",
  "6223": "s.\nAn ",
  "6224": "Pla",
  "6225": "s like ",
  "6226": "plain",
  "6227": "iti",
  "6228": "baby ",
  "6229": "told ",
  "6230": "\"the ",
  "6231": "prob",
  "6232": "hospit",
  "6233": "auti",
  "6234": "ching ",
  "6235": "Mountain",
  "6236": "on the other ",
  "6237": "Bur",
  "6238": "there.\nThe ",
  "6239": "government and ",
  "6240": "democracy",
  "6241": "limits ",
  "6242": "self-",
  "6243": "voic",
  "6244": "Day",
  "6245": "attac",
  "6246": "in Europe",
  "6247": "Paul",
  "6248": "government is ",
  "6249": "language.\n",
  "6250": "religions are ",
  "6251": "amous ",
  "6252": "Henry ",
  "6253": "Cul",
  "6254": "stars, ",
  "6255": "erous ",
  "6256": "feature ",
  "6257": "movi",
  "6258": "ination ",
  "6259": "most popular ",
  "6260": "rugby ",
  "6261": "crick",
  "6262": "189",
  "6263": "hosted the ",
  "6264": "Summer ",
  "6265": "host ",
  "6266": "and S",
  "6267": "Cham",
  "6268": "bat",
  "6269": "ed their ",
  "6270": "much of ",
  "6271": "Asia ",
  "6272": "pronunci",
  "6273": "television",
  "6274": "to go ",
  "6275": "(also ",
  "6276": ".\nNew York City ",
  "6277": "i-",
  "6278": ".\nToday, ",
  "6279": "ely, ",
  "6280": "often",
  "6281": "s, especially ",
  "6282": "i.",
  "6283": "acron",
  "6284": "M ",
  "6285": ".\nWhen people ",
  "6286": "Bible ",
  "6287": "Hebre",
  "6288": "Bala",
  "6289": "ites ",
  "6290": "says ",
  "6291": "is more ",
  "6292": "Sam",
  "6293": "said that the ",
  "6294": "clean ",
  "6295": "Jesus ",
  "6296": "describes ",
  "6297": "earth ",
  "6298": "angels are ",
  "6299": "argu",
  "6300": "power, ",
  "6301": ", that ",
  "6302": "mist",
  "6303": "small, ",
  "6304": "ze ",
  "6305": "to see ",
  "6306": "devil",
  "6307": "love ",
  "6308": "associated ",
  "6309": "since the ",
  "6310": "homin",
  "6311": "excl",
  "6312": "is un",
  "6313": "Native American ",
  "6314": "ancestor",
  "6315": "connected ",
  "6316": "south",
  "6317": "bound",
  "6318": "shared ",
  "6319": "agreement ",
  "6320": "s, called ",
  "6321": "ts (",
  "6322": "sequ",
  "6323": "al.\nThe ",
  "6324": "tall",
  "6325": "thick ",
  "6326": ".\nIt has a ",
  "6327": "develop ",
  "6328": "sch",
  "6329": "suggests ",
  "6330": "drink",
  "6331": "swe",
  "6332": ", but it ",
  "6333": "available ",
  "6334": "tropical ",
  "6335": "Del",
  "6336": "4,",
  "6337": "leading ",
  "6338": "traditions ",
  "6339": "Bah",
  "6340": "mono",
  "6341": "gebr",
  "6342": "that is not ",
  "6343": "greater ",
  "6344": ".\nPeople who ",
  "6345": "advanced ",
  "6346": "multipli",
  "6347": "Al-",
  "6348": "Persian ",
  "6349": "mou",
  "6350": "you can ",
  "6351": "ality ",
  "6352": "wis",
  "6353": "86",
  "6354": ".\nNot",
  "6355": "and its ",
  "6356": "things that are ",
  "6357": "physics ",
  "6358": "exact ",
  "6359": "size ",
  "6360": "electrom",
  "6361": "electromagnetic ",
  "6362": "bonds ",
  "6363": "chemical reaction",
  "6364": "philosophers ",
  "6365": "1800",
  "6366": "substanc",
  "6367": "needs ",
  "6368": "quant",
  "6369": "quantum ",
  "6370": "s, and the ",
  "6371": "down the ",
  "6372": ".\nChem",
  "6373": "clouds ",
  "6374": "magn",
  "6375": "pair",
  "6376": "it takes ",
  "6377": ".\nAstronom",
  "6378": "\", a ",
  "6379": "bserv",
  "6380": "astronomy ",
  "6381": "dang",
  "6382": "permanent ",
  "6383": "can be seen ",
  "6384": "s.\nThey also ",
  "6385": "then",
  "6386": "ed that the ",
  "6387": "Galileo ",
  "6388": "theory of ",
  "6389": "Andr",
  "6390": "Hubble ",
  "6391": "observe ",
  "6392": "phenomen",
  "6393": "galactic ",
  "6394": "ography",
  "6395": "miles ",
  "6396": "rav",
  "6397": "itational ",
  "6398": "chit",
  "6399": "road",
  "6400": "depends on ",
  "6401": "twice ",
  "6402": "o, and ",
  "6403": "Paris",
  "6404": "s, many ",
  "6405": "to use ",
  "6406": "organs ",
  "6407": "smaller than ",
  "6408": "miles (",
  "6409": "officially the ",
  "6410": "abul",
  "6411": "Pakistan and ",
  "6412": "3,",
  "6413": "400 ",
  "6414": "confl",
  "6415": "Des",
  "6416": "storm",
  "6417": "ut, ",
  "6418": "dog",
  "6419": "family",
  "6420": ".C",
  "6421": "; the ",
  "6422": "control of the ",
  "6423": "made it ",
  "6424": "slowly ",
  "6425": "sper",
  "6426": "between two ",
  "6427": "en and ",
  "6428": "fell ",
  "6429": ".\nSince the ",
  "6430": "Cong",
  "6431": "Pe",
  "6432": "PL",
  "6433": "German, ",
  "6434": "Pi",
  "6435": "Islands, ",
  "6436": "mur",
  "6437": "ech ",
  "6438": "Celtic ",
  "6439": "II ",
  "6440": "temperature ever ",
  "6441": "temperature ever recorded in ",
  "6442": ", on ",
  "6443": "2019",
  "6444": "reached ",
  "6445": "height ",
  "6446": "ruled by ",
  "6447": "executive ",
  "6448": "ologist",
  "6449": "where people ",
  "6450": ".\nIt will ",
  "6451": "man-made ",
  "6452": "very",
  "6453": "Met",
  "6454": "euk",
  "6455": "eukary",
  "6456": "tissu",
  "6457": "vertebrat",
  "6458": "celer",
  "6459": "vel",
  "6460": "ingre",
  "6461": "ingredi",
  "6462": "chip",
  "6463": "access ",
  "6464": "er to the ",
  "6465": "bottom ",
  "6466": "rights ",
  "6467": "e).\nThe ",
  "6468": "reak",
  "6469": "ago ",
  "6470": "variety of ",
  "6471": "froz",
  "6472": "prote",
  "6473": "-like ",
  "6474": "Cas",
  "6475": "prefer",
  "6476": "sounds ",
  "6477": "Scand",
  "6478": "Scandin",
  "6479": "Scandinavi",
  "6480": "dialect",
  "6481": "Dyn",
  "6482": "Dynast",
  "6483": "ones",
  "6484": "arin",
  "6485": "i (",
  "6486": ".\nIm",
  "6487": "must",
  "6488": ".\nAlmost ",
  "6489": "are still ",
  "6490": "in order to ",
  "6491": ".\nThis is the ",
  "6492": "biology ",
  "6493": ".\nScientists ",
  "6494": "depart",
  "6495": "student",
  "6496": "and is ",
  "6497": "headquarter",
  "6498": "Bel",
  "6499": "Gaul",
  "6500": "or of the ",
  "6501": "31",
  "6502": "64",
  "6503": "ilip",
  "6504": "about 4",
  "6505": ", or the ",
  "6506": "e; ",
  "6507": "well-known ",
  "6508": "ilar ",
  "6509": "West",
  "6510": "slaves ",
  "6511": "surviv",
  "6512": "fair",
  "6513": "immigr",
  "6514": "or \"",
  "6515": ".\nIndi",
  "6516": "siv",
  "6517": "crime ",
  "6518": "people.\n",
  "6519": "sodium ",
  "6520": ".\nThat means ",
  "6521": "(H",
  "6522": "y)",
  "6523": "instead ",
  "6524": "playing ",
  "6525": "ed.\nThis ",
  "6526": ".\nIn 16",
  "6527": "did not have ",
  "6528": "chester ",
  "6529": "vide",
  "6530": "store ",
  "6531": "wast",
  "6532": "cost ",
  "6533": "nations ",
  "6534": "forms ",
  "6535": "surrounded by ",
  "6536": "ocean ",
  "6537": "distinc",
  "6538": "wood, ",
  "6539": "Zhou ",
  "6540": "es, and the ",
  "6541": "for inst",
  "6542": "tail",
  "6543": "currenc",
  "6544": "wan ",
  "6545": "ializ",
  "6546": "manu",
  "6547": "king of ",
  "6548": "Festiv",
  "6549": "famili",
  "6550": "Constitu",
  "6551": "sex",
  "6552": "Saint ",
  "6553": "plann",
  "6554": "map ",
  "6555": "ft to ",
  "6556": "cook ",
  "6557": "helps ",
  "6558": "Cathars ",
  "6559": "absol",
  "6560": "tion.\nThe ",
  "6561": ".\nLater, ",
  "6562": "cities have ",
  "6563": "obil",
  "6564": "bicycl",
  "6565": "scrap",
  "6566": "New York, ",
  "6567": "room ",
  "6568": "text",
  "6569": "stit",
  "6570": "someone who ",
  "6571": ".\nThen, ",
  "6572": ".\nSome of the ",
  "6573": ".\nIt is one of the ",
  "6574": "imaginary ",
  "6575": "capitaliz",
  "6576": "World Wide ",
  "6577": "petrole",
  "6578": "tourists ",
  "6579": "rea",
  "6580": "Speed",
  "6581": "thest ",
  "6582": "infection ",
  "6583": "dictionaries ",
  "6584": "explan",
  "6585": "Denmark",
  "6586": "\u00c3\u00b8",
  "6587": "effici",
  "6588": "nickn",
  "6589": "which has ",
  "6590": "Hindu",
  "6591": "180",
  "6592": "volcano",
  "6593": "dia",
  "6594": "atural ",
  "6595": "librari",
  "6596": "from the Sun ",
  "6597": "changed the ",
  "6598": "vap",
  "6599": "sea level",
  "6600": "bulg",
  "6601": "methan",
  "6602": "verb ",
  "6603": "ive ",
  "6604": "clean",
  "6605": "nature ",
  "6606": "respectiv",
  "6607": "isc",
  "6608": "wise ",
  "6609": "adjectiv",
  "6610": "GFDL ",
  "6611": "Google",
  "6612": "Califor",
  "6613": "Californ",
  "6614": "unit of ",
  "6615": "clust",
  "6616": "Kau",
  "6617": "\u00ca\u00bb",
  "6618": "inch",
  "6619": "%, ",
  "6620": "\u00e2\u0082",
  "6621": "\u00e2\u0082\u00ac",
  "6622": "7.",
  "6623": "is the biggest ",
  "6624": "Cour",
  "6625": "evidence of ",
  "6626": "rational number",
  "6627": "planet in the Solar System",
  "6628": "phosph",
  "6629": "Spot",
  "6630": "lature",
  "6631": "borough",
  "6632": "litre ",
  "6633": "Madrid ",
  "6634": "Montreal ",
  "6635": "aui ",
  "6636": "OS ",
  "6637": "nouns ",
  "6638": "Neptune is ",
  "6639": ".\nNeptune ",
  "6640": "Le Ver",
  "6641": "Le Verri",
  "6642": "out of the ",
  "6643": "s, as ",
  "6644": "every year, as each other's last ",
  "6645": ".\nIn common years, ",
  "6646": "of the previous year.\nIn common years, ",
  "6647": "February and October ",
  "6648": "Northern Hemisphere ",
  "6649": "seasonal equivalent of ",
  "6650": "theory is ",
  "6651": "Asian ",
  "6652": "cultures ",
  "6653": "September",
  "6654": ".\nAug",
  "6655": "tili",
  "6656": "Roman calendar",
  "6657": ".\nOc",
  "6658": "two month",
  "6659": "of the following year.\nIn years immediately before common years, ",
  "6660": "t is a ",
  "6661": "creative ",
  "6662": "subject",
  "6663": "bow",
  "6664": "division ",
  "6665": ".\"\nIn ",
  "6666": "Rome ",
  "6667": "painting",
  "6668": ".\nIslamic ",
  "6669": "included ",
  "6670": "artists ",
  "6671": "resp",
  "6672": "Im",
  "6673": "s to the ",
  "6674": "itive ",
  "6675": "a simple ",
  "6676": "e of an ",
  "6677": "dust ",
  "6678": "need to ",
  "6679": "off the ",
  "6680": "ith",
  "6681": "nitrogen ",
  "6682": "or not ",
  "6683": "causing ",
  "6684": "and that ",
  "6685": "ighting ",
  "6686": "electricity",
  "6687": "seen",
  "6688": "signific",
  "6689": "largely ",
  "6690": "continents ",
  "6691": ".\nIn 197",
  "6692": "together, ",
  "6693": "ia and ",
  "6694": "languages, ",
  "6695": "municip",
  "6696": "London, ",
  "6697": "Eth",
  "6698": "Anglo",
  "6699": "Anglo-",
  "6700": "ra ",
  "6701": "intel",
  "6702": "messag",
  "6703": "Royal ",
  "6704": "s.\nHe ",
  "6705": "interested in ",
  "6706": "propos",
  "6707": "to \"",
  "6708": "analys",
  "6709": "Lab",
  "6710": "orator",
  "6711": "was built ",
  "6712": "in England",
  "6713": "acts ",
  "6714": "decided to ",
  "6715": "take the ",
  "6716": "police ",
  "6717": "wrong",
  "6718": "Morisset",
  "6719": "Canada ",
  "6720": "all over the world",
  "6721": "ion, ",
  "6722": "al of ",
  "6723": "tari",
  "6724": "has had ",
  "6725": "include",
  "6726": "at any ",
  "6727": "Apple ",
  "6728": "Cre",
  "6729": "pep",
  "6730": "gar",
  "6731": "ing is a ",
  "6732": "domestic",
  "6733": "Israel",
  "6734": "catt",
  "6735": "she",
  "6736": "more people ",
  "6737": "20th century ",
  "6738": "water, and ",
  "6739": "farm ",
  "6740": "but the ",
  "6741": "breed",
  "6742": "e.\n\"",
  "6743": "als and ",
  "6744": "als of ",
  "6745": "serious ",
  "6746": "production ",
  "6747": "sugar",
  "6748": "es.\nMost ",
  "6749": "require ",
  "6750": "umber",
  "6751": "Gl",
  "6752": "has several ",
  "6753": "eight",
  "6754": "result",
  "6755": "Commonwealth of ",
  "6756": "New Gu",
  "6757": "territories",
  "6758": "Indo",
  "6759": "Indo-",
  "6760": "anywhere ",
  "6761": "arrived in ",
  "6762": ").\nMost ",
  "6763": "y) ",
  "6764": ".\nAll the ",
  "6765": "caused by ",
  "6766": "bigger ",
  "6767": "years ago ",
  "6768": "Aboriginal people ",
  "6769": "a good ",
  "6770": "good for ",
  "6771": "believed that ",
  "6772": "Jos",
  "6773": "front of the ",
  "6774": "s, who ",
  "6775": "up a ",
  "6776": "in that ",
  "6777": "e, so ",
  "6778": "needed to ",
  "6779": "settlement",
  "6780": "black",
  "6781": "ped",
  "6782": "fine ",
  "6783": "beauti",
  "6784": "back to the ",
  "6785": "ross",
  "6786": "Thomas ",
  "6787": "185",
  "6788": "country, and ",
  "6789": "Associ",
  "6790": "political par",
  "6791": "given the ",
  "6792": "5 and ",
  "6793": "time, the ",
  "6794": "Ottom",
  "6795": "killed",
  "6796": "war, ",
  "6797": "lot of ",
  "6798": "around the world ",
  "6799": "5 million ",
  "6800": "Great Britain",
  "6801": "life, ",
  "6802": "Nobel Prize in ",
  "6803": "achi",
  "6804": "ers of the ",
  "6805": "wind ",
  "6806": "Cro",
  "6807": "daily ",
  "6808": "Nic",
  "6809": "Hu",
  "6810": "resear",
  "6811": "culture ",
  "6812": "ties.\nThe ",
  "6813": "ocal ",
  "6814": "Foot",
  "6815": "socc",
  "6816": "particip",
  "6817": "has also ",
  "6818": "es is ",
  "6819": "common in ",
  "6820": "ket",
  "6821": "s.\nThey are ",
  "6822": "dialects ",
  "6823": "languages",
  "6824": "ers who ",
  "6825": "\"R",
  "6826": "pronounced ",
  "6827": "food, ",
  "6828": "created by ",
  "6829": "NASA",
  "6830": ".\nDifferent ",
  "6831": "Hebrew ",
  "6832": "God's ",
  "6833": "or in ",
  "6834": "G-d ",
  "6835": "Satan ",
  "6836": "key ",
  "6837": "continue ",
  "6838": "band ",
  "6839": "b ",
  "6840": "proph",
  "6841": "Mec",
  "6842": "s.\nAn",
  "6843": "us and ",
  "6844": "eral",
  "6845": "; and ",
  "6846": "ked ",
  "6847": "feet",
  "6848": "color of ",
  "6849": ".\nInste",
  "6850": ".\nUnlike ",
  "6851": "n and ",
  "6852": "ched ",
  "6853": "ous, ",
  "6854": "kes",
  "6855": "in his ",
  "6856": "associated with ",
  "6857": "communicate ",
  "6858": "time, and ",
  "6859": ".\nNative ",
  "6860": "Americas",
  "6861": "ristop",
  "6862": "cities and ",
  "6863": "kingdom",
  "6864": "have their own ",
  "6865": "inhabit",
  "6866": "rema",
  "6867": "remains ",
  "6868": "announc",
  "6869": ".\nAm",
  "6870": "e.\nE",
  "6871": "depending on ",
  "6872": "introduced ",
  "6873": "United States",
  "6874": "higher ",
  "6875": "ancestr",
  "6876": "20th century, ",
  "6877": "yz",
  "6878": "istic",
  "6879": "Different ",
  "6880": "fungi",
  "6881": "at the same time ",
  "6882": "diameter",
  "6883": "dwar",
  "6884": "es to the ",
  "6885": "remov",
  "6886": "Usu",
  "6887": "Usually, ",
  "6888": "ed from the ",
  "6889": "type ",
  "6890": "easy ",
  "6891": "2020",
  "6892": "ance of ",
  "6893": "ru",
  "6894": "syn",
  "6895": "yet ",
  "6896": "linear ",
  "6897": ").\n",
  "6898": "form of the ",
  "6899": "mathematics ",
  "6900": "hammad ",
  "6901": "Kh",
  "6902": "ariz",
  "6903": ".\nPro",
  "6904": "too much ",
  "6905": ".\nAnd ",
  "6906": "Usually ",
  "6907": "formula ",
  "6908": "5.\nThe ",
  "6909": "time the ",
  "6910": "branches of ",
  "6911": "mut",
  "6912": "multiplication ",
  "6913": "taugh",
  "6914": "use a ",
  "6915": "solid",
  "6916": "es, such as ",
  "6917": "\", which means \"",
  "6918": "particles ",
  "6919": "like this",
  "6920": "have the same ",
  "6921": "uck ",
  "6922": "showed that ",
  "6923": "fix",
  "6924": "s.\nTo ",
  "6925": "times the ",
  "6926": "fission ",
  "6927": "uran",
  "6928": "happens ",
  "6929": "e.\nMost ",
  "6930": "is in the ",
  "6931": "ticl",
  "6932": "farther ",
  "6933": "er-",
  "6934": "heat",
  "6935": "relative ",
  "6936": "weak",
  "6937": "they will ",
  "6938": "s are the ",
  "6939": "magnetic mom",
  "6940": "s.\nWe ",
  "6941": "nearby ",
  "6942": "Big ",
  "6943": "% of all ",
  "6944": "expect",
  "6945": "the scientific ",
  "6946": "ology and ",
  "6947": "astro",
  "6948": "ain the ",
  "6949": "spher",
  "6950": "rest of ",
  "6951": "ac ",
  "6952": "Kar",
  "6953": "spectrum ",
  "6954": "the sk",
  "6955": "had the ",
  "6956": "ibl",
  "6957": "history, ",
  "6958": "come in ",
  "6959": "odi",
  "6960": ".\nPh",
  "6961": "sudd",
  "6962": "ago",
  "6963": "can get ",
  "6964": "digital ",
  "6965": "something",
  "6966": "ue to the ",
  "6967": "magnetic field ",
  "6968": "Pl",
  "6969": "rip",
  "6970": "institu",
  "6971": "Py",
  "6972": "room",
  "6973": "years of ",
  "6974": "othic ",
  "6975": "return ",
  "6976": "machines ",
  "6977": "cathedr",
  "6978": "a second ",
  "6979": "20th centur",
  "6980": "heart ",
  "6981": "were the first ",
  "6982": "ademic ",
  "6983": "involv",
  "6984": "the system ",
  "6985": "brain",
  "6986": "elet",
  "6987": "km",
  "6988": "\" (\"",
  "6989": "urfac",
  "6990": "classifi",
  "6991": ".\nAfghanist",
  "6992": "tallest ",
  "6993": "snow ",
  "6994": "valuable ",
  "6995": "ash ",
  "6996": "the second-",
  "6997": "Afghans ",
  "6998": "rur",
  "6999": "only a few ",
  "7000": "villag",
  "7001": "ander",
  "7002": "30,000 ",
  "7003": "civilization ",
  "7004": "ami",
  "7005": "dynasties ",
  "7006": "feud",
  "7007": "haz",
  "7008": "founding ",
  "7009": "advant",
  "7010": "neighbor",
  "7011": "whom ",
  "7012": "women",
  "7013": "terror",
  "7014": "work, ",
  "7015": "minist",
  "7016": ".\nOthers ",
  "7017": "NAT",
  "7018": "Angol",
  "7019": "October",
  "7020": "del ",
  "7021": "arily ",
  "7022": "onia ",
  "7023": "fav",
  "7024": "Jewish ",
  "7025": "for a long time",
  "7026": "eral ",
  "7027": "um and ",
  "7028": "Emperor ",
  "7029": "De",
  "7030": "President of ",
  "7031": "it \"",
  "7032": "Armenian ",
  "7033": "termin",
  "7034": "22 ",
  "7035": "Soviet Union",
  "7036": "solution ",
  "7037": "administrative ",
  "7038": "Council of ",
  "7039": "Organ",
  "7040": "<br",
  "7041": "<br>",
  "7042": "coin",
  "7043": "archaeological ",
  "7044": "results ",
  "7045": "defined as ",
  "7046": "ema",
  "7047": "conditions ",
  "7048": "unless ",
  "7049": "get their ",
  "7050": "ology.\nThe ",
  "7051": "life is ",
  "7052": "respir",
  "7053": "metabolism",
  "7054": "s to make ",
  "7055": "classific",
  "7056": "alive ",
  "7057": "age, ",
  "7058": "celeration ",
  "7059": "veloc",
  "7060": "vector ",
  "7061": "Law ",
  "7062": "y\" ",
  "7063": ".\nThough ",
  "7064": "asset",
  "7065": ", but the ",
  "7066": "possible",
  "7067": "is \"",
  "7068": "ability to ",
  "7069": ".\nOnce ",
  "7070": "they use ",
  "7071": "formal ",
  "7072": "apart ",
  "7073": "authority ",
  "7074": "complicated ",
  "7075": "people do not ",
  "7076": "), but ",
  "7077": "meat",
  "7078": "age and ",
  "7079": "in the past",
  "7080": "populous ",
  "7081": "inter ",
  "7082": "Hal",
  "7083": "People's Republic of China ",
  "7084": "People's Republic of China",
  "7085": "orang",
  "7086": "slightly ",
  "7087": "above the ",
  "7088": "to-",
  "7089": "es\n\n",
  "7090": "plague ",
  "7091": "It ",
  "7092": "men and ",
  "7093": "influenced by ",
  "7094": "-speak",
  "7095": "68",
  "7096": "Free ",
  "7097": "alley",
  "7098": "mid-",
  "7099": "dy",
  "7100": "award",
  "7101": "ude ",
  "7102": "46",
  "7103": "acqu",
  "7104": "Chann",
  "7105": "made in ",
  "7106": "circu",
  "7107": "fundam",
  "7108": "separat",
  "7109": "Sweden ",
  "7110": "water.\nThe ",
  "7111": "s.\nCom",
  "7112": "oftw",
  "7113": "digit",
  "7114": "at the same time",
  "7115": "written by ",
  "7116": "it, ",
  "7117": "made a ",
  "7118": "we know ",
  "7119": "vac",
  "7120": "s also ",
  "7121": "Nok",
  "7122": "media ",
  "7123": "categ",
  "7124": "video ",
  "7125": "Macintosh ",
  "7126": "Mac ",
  "7127": "still be ",
  "7128": "operating system",
  "7129": "paid ",
  "7130": "recycl",
  "7131": ".\nGe",
  "7132": "crust ",
  "7133": "covers ",
  "7134": "alleng",
  "7135": "restrial ",
  "7136": "5,000 ",
  "7137": "less",
  "7138": ".\nEach ",
  "7139": "mission",
  "7140": "acted ",
  "7141": "200,000 ",
  "7142": ",500",
  "7143": ".\"\nThe ",
  "7144": "print",
  "7145": "boat",
  "7146": "reference ",
  "7147": "monaster",
  "7148": "primat",
  "7149": "grammar",
  "7150": "suppos",
  "7151": "capture ",
  "7152": "Cathar",
  "7153": "incar",
  "7154": "were built ",
  "7155": "greg",
  "7156": "speech",
  "7157": "skyscrap",
  "7158": "park",
  "7159": "Congr",
  "7160": "Wind",
  "7161": "Window",
  "7162": "stitut",
  "7163": "page ",
  "7164": "ime C",
  "7165": "ate",
  "7166": "maiz",
  "7167": "measure the ",
  "7168": "find the ",
  "7169": "car ",
  "7170": "the spe",
  "7171": "approach",
  "7172": "athematicians ",
  "7173": "king or ",
  "7174": "by",
  "7175": "comedi",
  "7176": "unusual ",
  "7177": "frozen ",
  "7178": "cells ",
  "7179": ".\nIt is not ",
  "7180": "circumfer",
  "7181": "except for ",
  "7182": "weap",
  "7183": "care ",
  "7184": "January and ",
  "7185": "date ",
  "7186": "to, ",
  "7187": "for all ",
  "7188": "s\n\n",
  "7189": "abol",
  "7190": "farthest ",
  "7191": "diarrhe",
  "7192": "diarrhea",
  "7193": "sick ",
  "7194": "depth",
  "7195": "used in the ",
  "7196": "online ",
  "7197": "Denmark, ",
  "7198": "Norway ",
  "7199": "'s biggest ",
  "7200": "legislatur",
  "7201": "jazz ",
  "7202": "living thing ",
  "7203": "posses",
  "7204": "sych",
  "7205": "accept",
  "7206": "we have ",
  "7207": "Mediter",
  "7208": "Mediterran",
  "7209": "U ",
  "7210": "species of ",
  "7211": "hydrogen and ",
  "7212": "Earth.\nThe ",
  "7213": "osphere ",
  "7214": "sampl",
  "7215": "like",
  "7216": "say \"",
  "7217": "ystem",
  "7218": "vacc",
  "7219": "ecology ",
  "7220": "organic compound",
  "7221": "nod",
  "7222": "uary",
  "7223": "11 years ",
  "7224": "Frid",
  "7225": "leap year ",
  "7226": "in the United States, ",
  "7227": "ers.\nThe ",
  "7228": "flex",
  "7229": "fibr",
  "7230": "acid",
  "7231": "els",
  "7232": "43",
  "7233": "found in the ",
  "7234": "period of ",
  "7235": "leather",
  "7236": "rus ",
  "7237": "suff",
  "7238": "grammar ",
  "7239": "approximately ",
  "7240": "icense",
  "7241": "open content ",
  "7242": "opy",
  "7243": "Spir",
  "7244": "upreme ",
  "7245": "ghost ",
  "7246": "ghosts ",
  "7247": "gall",
  "7248": "democracy ",
  "7249": "iha",
  "7250": "Molok",
  "7251": "ammon",
  "7252": "MediaWiki",
  "7253": "(for example, ",
  "7254": "ww",
  "7255": ".\nIt was the ",
  "7256": ",000, ",
  "7257": "za ",
  "7258": "idiom",
  "7259": "lingu",
  "7260": "mm",
  "7261": "finity ",
  "7262": "real numbers ",
  "7263": "ultiplic",
  "7264": "oky",
  "7265": "legislature",
  "7266": "Zamenh",
  "7267": "- - - - - - - - ",
  "7268": ".\nThe city ",
  "7269": ".\nMusic ",
  "7270": "flut",
  "7271": "Baro",
  "7272": "adrid ",
  "7273": "mosques, ",
  "7274": "mosques have ",
  "7275": "Voyager 2",
  "7276": "Great Dark ",
  "7277": "Wall ",
  "7278": "Wall Stre",
  "7279": "always ends on the same day of the week as ",
  "7280": "December",
  "7281": "every year",
  "7282": "of the previous year.\nIn years immediately before common years, ",
  "7283": "September and December ",
  "7284": "it is the seasonal equivalent of ",
  "7285": "in the other",
  "7286": "\", meaning \"",
  "7287": "Cal",
  "7288": "Qu",
  "7289": "Southeast ",
  "7290": ").\nIn ",
  "7291": "East",
  "7292": "celebrated ",
  "7293": "thod",
  "7294": "April",
  "7295": "begin ",
  "7296": ".\nOctober ",
  "7297": "February were ",
  "7298": "700",
  "7299": "Julius Caes",
  "7300": "when he ",
  "7301": "June of the previous year",
  "7302": "diverse ",
  "7303": "express",
  "7304": "work of ",
  "7305": "scul",
  "7306": "sculp",
  "7307": "tured ",
  "7308": "is sometimes ",
  "7309": ".\nThose ",
  "7310": "emotions ",
  "7311": "photograph",
  "7312": ".\nThe other ",
  "7313": "next to ",
  "7314": "press ",
  "7315": "created in ",
  "7316": "successful",
  "7317": "eolith",
  "7318": "era",
  "7319": "Middle Ages, ",
  "7320": "Bibl",
  "7321": "ed-",
  "7322": "alism",
  "7323": "twenti",
  "7324": "y.\nA ",
  "7325": "pris",
  "7326": "ga",
  "7327": "make the ",
  "7328": "block",
  "7329": "as their ",
  "7330": "words \"",
  "7331": "label ",
  "7332": "typically ",
  "7333": "abstr",
  "7334": "Sir ",
  "7335": "basis ",
  "7336": "brea",
  "7337": "creates ",
  "7338": ".\nThere is no ",
  "7339": "carbon dioxide ",
  "7340": "phy",
  "7341": ".\nIt can ",
  "7342": "s\u00e2\u0080\u0094",
  "7343": ", especially ",
  "7344": "environmental ",
  "7345": "pain ",
  "7346": "historic ",
  "7347": "Capital ",
  "7348": "municipali",
  "7349": "mathematician ",
  "7350": "] ",
  "7351": "Co. ",
  "7352": "1st ",
  "7353": "obert ",
  "7354": "Dublin",
  "7355": "intellig",
  "7356": "Nazi ",
  "7357": "contribu",
  "7358": "later, ",
  "7359": "abe",
  "7360": "cyan",
  "7361": "Government ",
  "7362": "Ul",
  "7363": "19 ",
  "7364": ".\nIn 195",
  "7365": "punishment",
  "7366": "treatment ",
  "7367": "agg",
  "7368": "33 ",
  "7369": "Cha",
  "7370": "is from ",
  "7371": "Canadian ",
  "7372": "products ",
  "7373": "pork ",
  "7374": "trip",
  "7375": "sugar ",
  "7376": "development of ",
  "7377": "nomad",
  "7378": "otam",
  "7379": "World",
  "7380": "ador",
  "7381": "animals.\nThe ",
  "7382": "land, and ",
  "7383": "equipment",
  "7384": ".\nDr",
  "7385": "country and ",
  "7386": "s), and ",
  "7387": "harv",
  "7388": "genetic ",
  "7389": "production",
  "7390": "s, are ",
  "7391": "market",
  "7392": "grass",
  "7393": "important for ",
  "7394": "also be ",
  "7395": ":\n\nIn ",
  "7396": "addition, ",
  "7397": "fraction",
  "7398": "primary ",
  "7399": "that it is ",
  "7400": "System ",
  "7401": "commutativ",
  "7402": "(see ",
  "7403": "two or more ",
  "7404": "sign ",
  "7405": "t (",
  "7406": ".\nVer",
  "7407": "seven",
  "7408": "digits ",
  "7409": "final ",
  "7410": "know the ",
  "7411": "division",
  "7412": "s.\nAustr",
  "7413": "one of the world's ",
  "7414": ".\nThe country ",
  "7415": "cities of ",
  "7416": "cryst",
  "7417": "embl",
  "7418": "separated from the ",
  "7419": "animals and ",
  "7420": "a, the ",
  "7421": "50,000 ",
  "7422": "1850",
  "7423": "in 190",
  "7424": "III ",
  "7425": "Governor",
  "7426": "Ter",
  "7427": "cast",
  "7428": ".\nThe largest ",
  "7429": "much of the ",
  "7430": "desert",
  "7431": "affects ",
  "7432": "omin",
  "7433": ".\nUntil ",
  "7434": "live on ",
  "7435": "out the ",
  "7436": "Tasmania",
  "7437": "to the nor",
  "7438": "several different ",
  "7439": "van ",
  "7440": "Van ",
  "7441": ".\nCap",
  "7442": "around it",
  "7443": "named the ",
  "7444": ".\nA person ",
  "7445": "thrown ",
  "7446": "convicts ",
  "7447": "Phil",
  "7448": "stream",
  "7449": "rais",
  "7450": "everyone ",
  "7451": "ation.\nThe ",
  "7452": "street",
  "7453": ".\nIn the early ",
  "7454": "out, ",
  "7455": "look",
  "7456": "worth ",
  "7457": "middle of ",
  "7458": ".\nMany of the ",
  "7459": "went",
  "7460": "transport",
  "7461": "Leg",
  "7462": "stand ",
  "7463": "loud",
  "7464": "ey, ",
  "7465": "sent to ",
  "7466": "invaded ",
  "7467": "the country ",
  "7468": "actor",
  "7469": "Olympic",
  "7470": "Paul ",
  "7471": "stayed ",
  "7472": "live in a ",
  "7473": "y, or ",
  "7474": "because they are ",
  "7475": "Parliament ",
  "7476": "Commonwealth ",
  "7477": "state.\nThe ",
  "7478": "ency ",
  "7479": "David ",
  "7480": "is the main ",
  "7481": "Peter ",
  "7482": "Ky",
  "7483": "Bar",
  "7484": "Hum",
  "7485": "network",
  "7486": "ers, and ",
  "7487": "direct",
  "7488": "Er",
  "7489": "meet",
  "7490": "swimm",
  "7491": "motor ",
  "7492": "193",
  "7493": "ship of ",
  "7494": "occer",
  "7495": "they are the ",
  "7496": "Champi",
  "7497": "eman",
  "7498": "regional ",
  "7499": "focus ",
  "7500": "ez",
  "7501": "Asia and ",
  "7502": "along with ",
  "7503": "words that ",
  "7504": "spoken in ",
  "7505": "after a ",
  "7506": "e\" and ",
  "7507": ".\nFish ",
  "7508": "meet ",
  "7509": "ing on the ",
  "7510": "feed",
  "7511": "shorter ",
  "7512": "acronym",
  "7513": "angel ",
  "7514": "Qur",
  "7515": "suggest ",
  "7516": ".\nThey can ",
  "7517": "chi",
  "7518": "Gab",
  "7519": "el and ",
  "7520": "Bible",
  "7521": "does",
  "7522": ".\nOn the ",
  "7523": "giv",
  "7524": "top of ",
  "7525": "Balaam ",
  "7526": "hits ",
  "7527": "ve the ",
  "7528": "attacks ",
  "7529": ".\nIs",
  "7530": "Ezekiel ",
  "7531": "prepar",
  "7532": "lower",
  "7533": ", P",
  "7534": ", but they ",
  "7535": "evil",
  "7536": "rest",
  "7537": "e their ",
  "7538": "good or ",
  "7539": "kespe",
  "7540": "use of the ",
  "7541": "belief ",
  "7542": "vinc",
  "7543": "\".\nIn ",
  "7544": "other people ",
  "7545": "acy ",
  "7546": "trust",
  "7547": "ed) ",
  "7548": "is used to ",
  "7549": "Americas ",
  "7550": "Christop",
  "7551": "people were ",
  "7552": "languages and ",
  "7553": "connected to ",
  "7554": "people in the ",
  "7555": "glac",
  "7556": "upi",
  "7557": "ocol",
  "7558": "eanwhil",
  "7559": "belong to ",
  "7560": "presidenti",
  "7561": "ju",
  "7562": "green",
  "7563": "fruit is ",
  "7564": "an, and ",
  "7565": "Tre",
  "7566": "8 million ",
  "7567": "long and ",
  "7568": "bud",
  "7569": "syl",
  "7570": "300 ",
  "7571": "years.\n",
  "7572": "1600",
  "7573": "godd",
  "7574": "ri ",
  "7575": "Germanic ",
  "7576": "place of ",
  "7577": ".\nThey have ",
  "7578": "apples are ",
  "7579": "sauc",
  "7580": "as much ",
  "7581": "DNA ",
  "7582": ", and then ",
  "7583": "needed",
  "7584": ".\nCol",
  "7585": "grand",
  "7586": "role ",
  "7587": "monotheistic ",
  "7588": "pray ",
  "7589": "have the ",
  "7590": "union ",
  "7591": "(=",
  "7592": "work in ",
  "7593": "life and ",
  "7594": "construc",
  "7595": "examples are ",
  "7596": "equations ",
  "7597": "ed (",
  "7598": "formula_8",
  "7599": "formula_9",
  "7600": "ed under ",
  "7601": "Europe and ",
  "7602": "algebra, ",
  "7603": "formula_4",
  "7604": "variable",
  "7605": "1 times ",
  "7606": "is the study of ",
  "7607": ", using ",
  "7608": "line",
  "7609": "seem ",
  "7610": "rules, ",
  "7611": "this does not ",
  "7612": "1.\nThe ",
  "7613": "invers",
  "7614": "somewhat ",
  "7615": "1/",
  "7616": "onc",
  "7617": "beyond ",
  "7618": "experiment",
  "7619": ".\nExamples of ",
  "7620": "an atom ",
  "7621": "\u00ce\u00bc",
  "7622": "\u00ce\u00bf\u00cf",
  "7623": "ation or ",
  "7624": "s called ",
  "7625": "s of the same ",
  "7626": "formed ",
  "7627": "ton's ",
  "7628": "motion",
  "7629": "Alber",
  "7630": "noble ",
  "7631": "pudd",
  "7632": "experiment ",
  "7633": "Fred",
  "7634": "Freder",
  "7635": "ometer",
  "7636": "had no ",
  "7637": "\" the ",
  "7638": "three main ",
  "7639": "e) and ",
  "7640": "negativ",
  "7641": "relation ",
  "7642": "radioactive ",
  "7643": "radiation ",
  "7644": "in the form of ",
  "7645": "each other.\nThe ",
  "7646": "shell ",
  "7647": "complicated",
  "7648": ".\nFor example, a ",
  "7649": "if it is ",
  "7650": "explains ",
  "7651": "e.\nTo ",
  "7652": "also has a ",
  "7653": "planets, ",
  "7654": "structure and ",
  "7655": "time to ",
  "7656": "study",
  "7657": "ies and ",
  "7658": "rew ",
  "7659": "ocentr",
  "7660": "explain the ",
  "7661": "names of ",
  "7662": "translat",
  "7663": "the sun",
  "7664": "Catholic Church ",
  "7665": ", people ",
  "7666": "colour",
  "7667": "existence of ",
  "7668": "Androm",
  "7669": "Andromeda ",
  "7670": "things, ",
  "7671": "waves ",
  "7672": "accurate ",
  "7673": "es were built ",
  "7674": "imil",
  "7675": "revolution ",
  "7676": "divided by ",
  "7677": "Comp",
  "7678": "seem",
  "7679": "expos",
  "7680": "escop",
  "7681": "es at ",
  "7682": "looking at ",
  "7683": ",000,000",
  "7684": "ting the ",
  "7685": "stellar ",
  "7686": "asteroids ",
  "7687": "assin",
  "7688": "Saturn",
  "7689": "gravitational ",
  "7690": "tunn",
  "7691": "there was ",
  "7692": "established ",
  "7693": "sym",
  "7694": "propor",
  "7695": "needs to ",
  "7696": "architectur",
  "7697": "palac",
  "7698": "Japan, ",
  "7699": "this time",
  "7700": "Revolution",
  "7701": "gir",
  "7702": "refer to ",
  "7703": "fried ",
  "7704": "correct ",
  "7705": "organ ",
  "7706": "asteroid ",
  "7707": ") to ",
  "7708": "600 ",
  "7709": "Gi",
  "7710": "ized ",
  "7711": "din",
  "7712": "is a country in ",
  "7713": ".\nAfghanistan ",
  "7714": "aps",
  "7715": "passed ",
  "7716": "goods ",
  "7717": "leave the ",
  "7718": "Hindu ",
  "7719": "Himal",
  "7720": "Himalay",
  "7721": "which have ",
  "7722": "fal",
  "7723": "Iranian ",
  "7724": "sub-",
  "7725": "ging ",
  "7726": "platea",
  "7727": "so it ",
  "7728": "as of ",
  "7729": "today's ",
  "7730": "Buddhism ",
  "7731": "eed",
  "7732": "Ghaz",
  "7733": "Ghazn",
  "7734": "Mong",
  "7735": "uted ",
  "7736": "throw ",
  "7737": "support",
  "7738": "government.\nThe ",
  "7739": "troop",
  "7740": "started",
  "7741": "conserv",
  "7742": "based in ",
  "7743": "ruled ",
  "7744": "Saudi Arab",
  "7745": "lies ",
  "7746": "(F",
  "7747": "Democratic ",
  "7748": ".\nAngol",
  "7749": "a is a ",
  "7750": "th-largest ",
  "7751": "orities ",
  "7752": "Italian, ",
  "7753": "\u00c3\u00b3",
  "7754": "Plat",
  "7755": "mountain rang",
  "7756": "orgi",
  "7757": "comes from the Latin \"",
  "7758": "silver",
  "7759": "countries (",
  "7760": "theastern ",
  "7761": "Spanish and ",
  "7762": "countries in ",
  "7763": "South Americ",
  "7764": "federal ",
  "7765": "them and ",
  "7766": "amp",
  "7767": "Spain, ",
  "7768": "Roman Catholic",
  "7769": "about 9",
  "7770": "ary, ",
  "7771": "more than a ",
  "7772": "age",
  "7773": "works of ",
  "7774": "Holy Roman ",
  "7775": "Austrian ",
  "7776": "titl",
  "7777": "14, ",
  "7778": "was , on ",
  "7779": "chanc",
  "7780": "berg",
  "7781": "ann ",
  "7782": "ins",
  "7783": "ner ",
  "7784": "\"N",
  "7785": "Armenia ",
  "7786": "Euras",
  "7787": "recognis",
  "7788": "was invent",
  "7789": "scrip",
  "7790": "an object ",
  "7791": "written down ",
  "7792": "interest ",
  "7793": ".\nSome of these ",
  "7794": "deals ",
  "7795": "visitors ",
  "7796": "plants and ",
  "7797": "by using ",
  "7798": "animals, ",
  "7799": "vertebrates ",
  "7800": "otroph",
  "7801": "Africa ",
  "7802": "foss",
  "7803": "fossil ",
  "7804": "so that the ",
  "7805": ".\nAcceleration ",
  "7806": "measured in ",
  "7807": "sometimes called ",
  "7808": "Newton ",
  "7809": ".\nThis means that ",
  "7810": "akes, ",
  "7811": "sausage ",
  "7812": ").\nA ",
  "7813": "operate ",
  "7814": "card ",
  "7815": "users ",
  "7816": "larger than ",
  "7817": "professional ",
  "7818": "a very ",
  "7819": "s\" (",
  "7820": "to re",
  "7821": "which can be ",
  "7822": "court ",
  "7823": "ordinary ",
  "7824": "have to pay ",
  "7825": "mixed with ",
  "7826": "chas",
  "7827": "offer ",
  "7828": "tions, ",
  "7829": "queen ",
  "7830": "historically ",
  "7831": ".\nAmeric",
  "7832": "Capit",
  "7833": "Chinese, ",
  "7834": "became more ",
  "7835": "millenn",
  "7836": ", J",
  "7837": "Qing ",
  "7838": "berry",
  "7839": "ump",
  "7840": "owever, the ",
  "7841": "whit",
  "7842": "brain ",
  "7843": "blu",
  "7844": "for this ",
  "7845": "system.\nThe ",
  "7846": "with this ",
  "7847": "children",
  "7848": "a US ",
  "7849": "ology is ",
  "7850": "iving ",
  "7851": "biology",
  "7852": "years, and ",
  "7853": "answer ",
  "7854": "department",
  "7855": ".\nBelgium ",
  "7856": "in 195",
  "7857": "stopped ",
  "7858": "smoo",
  "7859": "oceanic ",
  "7860": "21, ",
  "7861": "government, ",
  "7862": "notable ",
  "7863": "carto",
  "7864": "o B",
  "7865": "19th and ",
  "7866": "Mag",
  "7867": "film",
  "7868": "people.\nThe ",
  "7869": "razil ",
  "7870": "not a ",
  "7871": "than any other ",
  "7872": "owned ",
  "7873": "prison",
  "7874": "also has ",
  "7875": "or other ",
  "7876": "2n",
  "7877": "2nd ",
  "7878": "fundamental ",
  "7879": "things such as ",
  "7880": "method ",
  "7881": "y is also ",
  "7882": "45",
  "7883": "mass",
  "7884": "H ",
  "7885": "Na",
  "7886": "correct",
  "7887": "puter ",
  "7888": "within ",
  "7889": "approach ",
  "7890": "algorithm ",
  "7891": "wrote the ",
  "7892": "it a ",
  "7893": "-t",
  "7894": "ts the ",
  "7895": "Babb",
  "7896": "memor",
  "7897": "didn't ",
  "7898": "programma",
  "7899": "as many ",
  "7900": "made to ",
  "7901": "ED",
  "7902": "perim",
  "7903": "after",
  "7904": "break down ",
  "7905": "tel ",
  "7906": "sudden",
  "7907": "bedd",
  "7908": "bedded ",
  "7909": "one thing ",
  "7910": "also known as ",
  "7911": ".\nThis is called ",
  "7912": "Antarctic",
  "7913": "crust",
  "7914": "distinct ",
  "7915": "without a ",
  "7916": "consider the ",
  "7917": "13.",
  "7918": "pite ",
  "7919": "terrestrial ",
  "7920": "hypothes",
  "7921": "image ",
  "7922": "RC",
  "7923": "two different ",
  "7924": "powers ",
  "7925": "fuc",
  "7926": "bellion ",
  "7927": "controversi",
  "7928": "peas",
  "7929": "growth ",
  "7930": "Spr",
  "7931": "Mid",
  "7932": "New Year",
  "7933": "sad ",
  "7934": "ty, ",
  "7935": ", these ",
  "7936": "drawn ",
  "7937": "prin",
  "7938": "necessary ",
  "7939": "mean:\n\n",
  "7940": ".\nAlso ",
  "7941": "tion to ",
  "7942": "Christianity",
  "7943": "worshipp",
  "7944": ".\nPar",
  "7945": "society ",
  "7946": "surr",
  "7947": "ault",
  "7948": "ture, ",
  "7949": "definition of ",
  "7950": "theory, ",
  "7951": "telesco",
  "7952": "telescope",
  "7953": "used for the ",
  "7954": "cours",
  "7955": "below",
  "7956": "India is ",
  "7957": "Vol",
  "7958": "categor",
  "7959": "Cup ",
  "7960": "that they are ",
  "7961": "moral ",
  "7962": "Time C",
  "7963": "gene ",
  "7964": "70 ",
  "7965": "marine ",
  "7966": "corn ",
  "7967": "similar to the ",
  "7968": "refers to ",
  "7969": "is used in ",
  "7970": "ristot",
  "7971": "es can ",
  "7972": "at one ",
  "7973": "speed ",
  "7974": "prime ",
  "7975": "concept",
  "7976": "Comed",
  "7977": "entertain",
  "7978": "writer ",
  "7979": "comet ",
  "7980": "night",
  "7981": "cow ",
  "7982": "within a ",
  "7983": "written",
  "7984": "Articl",
  "7985": "diamet",
  "7986": "invest",
  "7987": "Sea",
  "7988": "city.\nThe ",
  "7989": "149",
  "7990": "idel ",
  "7991": "attack ",
  "7992": ".\nEven though ",
  "7993": "stopp",
  "7994": "exerc",
  "7995": "tourist",
  "7996": "ame",
  "7997": "countries.\nThe ",
  "7998": "vegetabl",
  "7999": "April and July ",
  "8000": "on December ",
  "8001": "mas ",
  "8002": "song ",
  "8003": "a group of ",
  "8004": "(s) ",
  "8005": "may also be ",
  "8006": "Devil",
  "8007": "rehydr",
  "8008": "definition",
  "8009": "distance between the ",
  "8010": "encyclopedia ",
  "8011": "Baltic ",
  "8012": "certain",
  "8013": "Faro",
  "8014": "Danes ",
  "8015": "Finland, ",
  "8016": "word that ",
  "8017": "mind ",
  "8018": "body, ",
  "8019": "power to ",
  "8020": "renew",
  "8021": "tourist ",
  "8022": "cover ",
  "8023": "planetary ",
  "8024": "water vap",
  "8025": "equator",
  "8026": "above sea level",
  "8027": "earthqu",
  "8028": "volcanic ",
  "8029": "fresh water ",
  "8030": "kg",
  "8031": "effect ",
  "8032": "Under",
  "8033": "Prim",
  "8034": "they do ",
  "8035": "length ",
  "8036": "of the same ",
  "8037": "fluid ",
  "8038": "colog",
  "8039": ".\nEgyp",
  "8040": "11, ",
  "8041": "France.\n",
  "8042": "bone ",
  "8043": "in leap years.\n",
  "8044": "in common years and ",
  "8045": "respectively",
  "8046": "day, ",
  "8047": "resta",
  "8048": "restaur",
  "8049": "whal",
  "8050": "\" is not ",
  "8051": "es.\nTheir ",
  "8052": "pred",
  "8053": "predator",
  "8054": "overseas ",
  "8055": "the second largest ",
  "8056": "Quebec",
  "8057": "inherit",
  "8058": "19th century ",
  "8059": "GD",
  "8060": "GDP",
  "8061": "Lapl",
  "8062": "field of ",
  "8063": "n\u00c4\u0093",
  "8064": "sn",
  "8065": "license",
  "8066": "lens",
  "8067": "ikh",
  "8068": "transc",
  "8069": "transcend",
  "8070": "effor",
  "8071": "books and ",
  "8072": "ai, ",
  "8073": ".\nGoog",
  "8074": "World Wide Web",
  "8075": "olig",
  "8076": "oligarch",
  "8077": "10) ",
  "8078": "rings ",
  "8079": "spiral galax",
  "8080": "geometry ",
  "8081": "K\u00c3\u00b6",
  "8082": "\" was ",
  "8083": "Libr",
  "8084": ".\nIt is also the ",
  "8085": "result of ",
  "8086": "San",
  "8087": "bird ",
  "8088": "a name ",
  "8089": "ifying ",
  "8090": "ht",
  "8091": "elan",
  "8092": "allel",
  "8093": "Northern Ireland",
  "8094": "Northern Ireland ",
  "8095": "ael",
  "8096": "aelic ",
  "8097": "idiom ",
  "8098": "volume of ",
  "8099": "on this ",
  "8100": "spacecraft to ",
  "8101": "infinity ",
  "8102": "with \"",
  "8103": ".\nJune ",
  "8104": "NASA's ",
  "8105": "'i ",
  "8106": "County",
  "8107": "cubic ",
  "8108": ".\nLas Vegas ",
  "8109": "nou",
  "8110": "noun ",
  "8111": ".\nLondon ",
  "8112": "train ",
  "8113": "kilo",
  "8114": "guit",
  "8115": "musicians ",
  "8116": ".\nMadrid ",
  "8117": ".\nMontre",
  "8118": "Montreal",
  "8119": "Xbox ",
  "8120": "spinal ",
  "8121": "polar ",
  "8122": ".\nMosqu",
  "8123": "mosque ",
  "8124": "courty",
  "8125": "All ",
  "8126": "Nauru ",
  "8127": ".\nNeptun",
  "8128": "Voyager 2\" ",
  "8129": "Queen",
  "8130": "Staten Island",
  "8131": ".\nNew York ",
  "8132": "Amster",
  "8133": "pril ",
  "8134": "additionally, ",
  "8135": "days are exactly 35 weeks (245 ",
  "8136": "days are exactly 35 weeks (245 days) apart",
  "8137": "years immediately after ",
  "8138": "other common years, ",
  "8139": "leap years and ",
  "8140": "Northern Hemisphere and ",
  "8141": "each hemisphere, ",
  "8142": "each hemisphere, it is the seasonal equivalent of ",
  "8143": "celebrated in ",
  "8144": "transi",
  "8145": "summer",
  "8146": "th month of the year in the Gregorian calendar, ",
  "8147": "emperor ",
  "8148": "November",
  "8149": "February were added to the ",
  "8150": "writers ",
  "8151": "91 ",
  "8152": "March and November ",
  "8153": "affect the ",
  "8154": ".\n\"The ",
  "8155": "poetr",
  "8156": "ed into the ",
  "8157": "ulat",
  "8158": "is normally ",
  "8159": "e of \"",
  "8160": "when someone ",
  "8161": "painting ",
  "8162": ", then the ",
  "8163": "eolithic ",
  "8164": "floor",
  "8165": "potter",
  "8166": "dram",
  "8167": "which means \"",
  "8168": "things in the ",
  "8169": "respond",
  "8170": "many new ",
  "8171": "Class",
  "8172": "twentie",
  "8173": "belongs to ",
  "8174": "thetic ",
  "8175": "Rec",
  "8176": "vowel",
  "8177": "oen",
  "8178": "helped ",
  "8179": "Greeks ",
  "8180": "\u00c3\u00a6",
  "8181": "weight of ",
  "8182": "outer spac",
  "8183": "composed of ",
  "8184": "argon",
  "8185": "imals ",
  "8186": "lung",
  "8187": "smok",
  "8188": "hip",
  "8189": "mechanical ",
  "8190": "aticall",
  "8191": "greatly ",
  "8192": "rapid ",
  "8193": "suppl",
  "8194": "atmosphere, ",
  "8195": "tect",
  "8196": "billion years ago",
  "8197": "icial ",
  "8198": "making the ",
  "8199": "power of ",
  "8200": ".\nHe was ",
  "8201": "mother",
  "8202": "St. ",
  "8203": "sea, ",
  "8204": "oney ",
  "8205": "Protestant ",
  "8206": "marri",
  "8207": "who was ",
  "8208": "Robert ",
  "8209": "regard",
  "8210": "modern-day ",
  "8211": "Park ",
  "8212": "secret ",
  "8213": ".\nThis made ",
  "8214": "victor",
  "8215": "possib",
  "8216": "possibly ",
  "8217": "sav",
  "8218": "shorten",
  "8219": "Eliz",
  "8220": "Elizabe",
  "8221": "Elizabeth ",
  "8222": "etical ",
  "8223": "included the ",
  "8224": "test",
  "8225": "when a ",
  "8226": "think",
  "8227": "if a ",
  "8228": "breaking ",
  "8229": "Using ",
  "8230": "helped to ",
  "8231": "Aut",
  "8232": "hysical ",
  "8233": "project",
  "8234": "ran ",
  "8235": "mit",
  "8236": ".\nAt that ",
  "8237": "House of ",
  "8238": "ords ",
  "8239": "that had ",
  "8240": "that he ",
  "8241": "ethic",
  "8242": "received ",
  "8243": "Prime Minister ",
  "8244": "petition",
  "8245": "app",
  "8246": "Otta",
  "8247": "Ottaw",
  "8248": ".\nHer ",
  "8249": "album ",
  "8250": "released in ",
  "8251": "influenced ",
  "8252": "e\", ",
  "8253": "1998",
  "8254": ".\nMor",
  "8255": "Ontari",
  "8256": "has an ",
  "8257": "brother",
  "8258": "win ",
  "8259": "include:\n\n\n",
  "8260": "dobe ",
  "8261": "estin",
  "8262": "maxim",
  "8263": "raw ",
  "8264": "sure ",
  "8265": "crops ",
  "8266": "hors",
  "8267": "foods ",
  "8268": "yiel",
  "8269": "rounding ",
  "8270": "varie",
  "8271": "es, so ",
  "8272": "washing ",
  "8273": "farmers ",
  "8274": "technical ",
  "8275": "survive ",
  "8276": "hus",
  "8277": "land of ",
  "8278": "depends on the ",
  "8279": "wider ",
  "8280": "reason, ",
  "8281": "distribu",
  "8282": "the most important ",
  "8283": "metric ton",
  "8284": "alk",
  "8285": "subtraction",
  "8286": "roo",
  "8287": "studied in ",
  "8288": "arithmetic",
  "8289": "percent",
  "8290": "get the ",
  "8291": "jobs ",
  "8292": "areas of ",
  "8293": "recei",
  "8294": ".\nAddition ",
  "8295": "more complex ",
  "8296": "demonstr",
  "8297": "together to make ",
  "8298": "thus ",
  "8299": "distance between ",
  "8300": "ally's ",
  "8301": "'s hous",
  "8302": "120",
  "8303": "house ",
  "8304": "can be found ",
  "8305": "meter",
  "8306": "is used ",
  "8307": "becomes ",
  "8308": "Oceania",
  "8309": ", and is ",
  "8310": "Austral",
  "8311": "ed up ",
  "8312": "Australia's ",
  "8313": "lives in ",
  "8314": "aid",
  "8315": "e.\nThe first ",
  "8316": "Prime Minister of ",
  "8317": "is a member of the ",
  "8318": "s.\nIt is a ",
  "8319": "Victoria, ",
  "8320": ") which ",
  "8321": "77",
  "8322": "a su",
  "8323": "threat",
  "8324": "BBC ",
  "8325": "report ",
  "8326": "Stra",
  "8327": "in different way",
  "8328": "gras",
  "8329": ", and they ",
  "8330": "to help ",
  "8331": "hu",
  "8332": "cloth",
  "8333": "pointed ",
  "8334": "Joseph ",
  "8335": ".\nCaptain ",
  "8336": "South",
  "8337": "New Zealand ",
  "8338": "last",
  "8339": "did not know ",
  "8340": "birds ",
  "8341": "wer",
  "8342": "to take ",
  "8343": "no-one ",
  "8344": "aling ",
  "8345": "populated ",
  "8346": "ettl",
  "8347": "colony ",
  "8348": "ody ",
  "8349": "eaten",
  "8350": "starv",
  "8351": "for the s",
  "8352": "bridge ",
  "8353": "s and a ",
  "8354": "beautiful ",
  "8355": "e.\nBecause ",
  "8356": "mountains ",
  "8357": "Bl",
  "8358": "very high ",
  "8359": "cross",
  "8360": "of B",
  "8361": "or and ",
  "8362": "industry",
  "8363": ".\nSo",
  "8364": "Legis",
  "8365": "Council ",
  "8366": "given by ",
  "8367": ".\nWom",
  "8368": ".\nWomen ",
  "8369": "Parliament of ",
  "8370": "money, ",
  "8371": "started in ",
  "8372": "Germany, ",
  "8373": "Ottoman ",
  "8374": ".\nAustralian ",
  "8375": "Sydney ",
  "8376": "Harb",
  "8377": "1930",
  "8378": "joined ",
  "8379": "itl",
  "8380": "United States and ",
  "8381": "elt ",
  "8382": "election ",
  "8383": "trading ",
  "8384": "Kore",
  "8385": "land in ",
  "8386": "(like ",
  "8387": ".\nThese people ",
  "8388": "woman ",
  "8389": "2010 ",
  "8390": "Hur",
  "8391": "religion, ",
  "8392": "multic",
  "8393": "encourag",
  "8394": "English and ",
  "8395": ".\nFamous ",
  "8396": "and ro",
  "8397": "well known ",
  "8398": "\") and ",
  "8399": "ath ",
  "8400": "& ",
  "8401": "commercial ",
  "8402": "movie ",
  "8403": "sporting ",
  "8404": "Grand ",
  "8405": "soccer",
  "8406": "Net",
  "8407": "e and the ",
  "8408": "New Guin",
  "8409": "ials ",
  "8410": "almost entirely ",
  "8411": "Africa and ",
  "8412": "English language ",
  "8413": "frequently ",
  "8414": "other plac",
  "8415": "accent",
  "8416": "eless ",
  "8417": "ones, ",
  "8418": "about a ",
  "8419": "varies ",
  "8420": "limit ",
  "8421": "occasionally ",
  "8422": ", but some ",
  "8423": "come from the ",
  "8424": "rad",
  "8425": "government that ",
  "8426": "funn",
  "8427": "os\" ",
  "8428": "Qur'",
  "8429": "referenc",
  "8430": "princip",
  "8431": "el (",
  "8432": "Gabri",
  "8433": "Gen",
  "8434": "fire ",
  "8435": "doesn't ",
  "8436": "close to the ",
  "8437": "oven",
  "8438": "see the ",
  "8439": "spoke ",
  "8440": "plagu",
  "8441": "protects ",
  "8442": "Angels ",
  "8443": "seeing ",
  "8444": "ple of ",
  "8445": "zz",
  "8446": "the B",
  "8447": "Vir",
  "8448": "pip",
  "8449": "describe the ",
  "8450": "ants of ",
  "8451": "not all ",
  "8452": "sin",
  "8453": ", it is ",
  "8454": "one who ",
  "8455": "Alla",
  "8456": "Arabic",
  "8457": "don't ",
  "8458": "lims ",
  "8459": "ail ",
  "8460": "mistak",
  "8461": "them as ",
  "8462": "that they were ",
  "8463": "the other hand",
  "8464": "Shakespe",
  "8465": "o is ",
  "8466": "evil ",
  "8467": "een",
  "8468": "body of ",
  "8469": "repeti",
  "8470": "in other ",
  "8471": "can be a ",
  "8472": "listen",
  "8473": ", this ",
  "8474": "previously ",
  "8475": "American",
  "8476": "umbu",
  "8477": "Caribbean ",
  "8478": "adopted ",
  "8479": "a was ",
  "8480": "Siber",
  "8481": "today, ",
  "8482": "have similar ",
  "8483": "practice ",
  "8484": "eanwhile, ",
  "8485": "0.9",
  "8486": "% are ",
  "8487": "has the largest ",
  "8488": "via ",
  "8489": "presidential ",
  "8490": "juic",
  "8491": "ous and ",
  "8492": "ired ",
  "8493": "ants are ",
  "8494": "ding ",
  "8495": "that grow",
  "8496": "altern",
  "8497": "recently ",
  "8498": "colder ",
  "8499": "e to be ",
  "8500": ".\nEnglish ",
  "8501": "anism",
  "8502": "marks ",
  "8503": "described as ",
  "8504": "drin",
  "8505": "cooking",
  "8506": "France and ",
  "8507": "two",
  "8508": "lec",
  "8509": "tar",
  "8510": "enjoy ",
  "8511": "of all ",
  "8512": "Wash",
  "8513": "Washing",
  "8514": "areas where ",
  "8515": "s:\n\n\n",
  "8516": "believe in the ",
  "8517": "development",
  "8518": "best known ",
  "8519": "\u00c3\u00ad ",
  "8520": "because its ",
  "8521": "churches, ",
  "8522": "Jews ",
  "8523": "esid",
  "8524": "inequ",
  "8525": "turns ",
  "8526": "put into ",
  "8527": "surv",
  "8528": "simplest ",
  "8529": "multipl",
  "8530": "involve ",
  "8531": "ponent",
  "8532": "multiplied by ",
  "8533": "Early ",
  "8534": "Babyl",
  "8535": "Alexandri",
  "8536": "Muhammad ",
  "8537": "\u00c5\u00ab",
  "8538": "CE",
  "8539": "84",
  "8540": "transl",
  "8541": "Latin",
  "8542": "a number ",
  "8543": "we can ",
  "8544": "terms, ",
  "8545": "formula_5",
  "8546": "(I",
  "8547": "utions ",
  "8548": "lop",
  "8549": "independent",
  "8550": ".\nIt can also be ",
  "8551": "69",
  "8552": "obvi",
  "8553": "properties ",
  "8554": "unc",
  "8555": "has the same ",
  "8556": "refers ",
  "8557": "\"I",
  "8558": "is that ",
  "8559": "formula_10",
  "8560": "e (or ",
  "8561": "reci",
  "8562": "nan",
  "8563": ".\nThese are ",
  "8564": "water molecul",
  "8565": "oxygen atom",
  "8566": "forces ",
  "8567": ".\nThe word \"",
  "8568": "\u00ce\u00bf\u00cf\u0082",
  "8569": "use the word \"",
  "8570": "thought that ",
  "8571": "smaller piec",
  "8572": "investi",
  "8573": "investig",
  "8574": "toine ",
  "8575": "avo",
  "8576": "scientist ",
  "8577": "microscope",
  "8578": "Albert ",
  "8579": "Einstein ",
  "8580": "atomic number ",
  "8581": "how many ",
  "8582": "positive charg",
  "8583": "true",
  "8584": "mass of the ",
  "8585": "particle ",
  "8586": "\u00c3\u00b6d",
  "8587": "laborator",
  "8588": "recorded ",
  "8589": "discovery ",
  "8590": "led to the ",
  "8591": "over and ",
  "8592": "is made of ",
  "8593": "eter (",
  "8594": "s into ",
  "8595": "electricity ",
  "8596": "in's ",
  "8597": "nick",
  "8598": "on or ",
  "8599": "attract ",
  "8600": "spectrum",
  "8601": "where it is ",
  "8602": "spin",
  "8603": "s of a ",
  "8604": "pull",
  "8605": "strongest ",
  "8606": "metall",
  "8607": "one sid",
  "8608": "its orbit ",
  "8609": "opposite ",
  "8610": "turning ",
  "8611": "rand",
  "8612": "half-",
  "8613": "of any ",
  "8614": "supernov",
  "8615": "in the future",
  "8616": "galaxies, ",
  "8617": "explos",
  "8618": "background ",
  "8619": "way the ",
  "8620": ".\nObserv",
  "8621": ".\nSome other ",
  "8622": "through a ",
  "8623": "a long time ",
  "8624": "e of the Earth ",
  "8625": "for the first ",
  "8626": "Ke",
  "8627": "Galil",
  "8628": "allowing ",
  "8629": "puls",
  "8630": "imilarl",
  "8631": "telescopes ",
  "8632": "satellit",
  "8633": "conven",
  "8634": ", which is the ",
  "8635": "length of ",
  "8636": "wave ",
  "8637": "phenomena ",
  "8638": "end to ",
  "8639": "analog",
  "8640": "only the ",
  "8641": "due to the ",
  "8642": "was found",
  "8643": "y is the study of the ",
  "8644": "Astronom",
  "8645": "ate (",
  "8646": ").\nIn the ",
  "8647": "and how ",
  "8648": "formed by ",
  "8649": "office ",
  "8650": "architects ",
  "8651": "copi",
  "8652": "Asia, ",
  "8653": "Gothic ",
  "8654": "Renaissance ",
  "8655": "ing, or ",
  "8656": "Centur",
  "8657": "cheap",
  "8658": "technology ",
  "8659": "spar",
  "8660": "name for the ",
  "8661": "st-",
  "8662": "ott",
  "8663": "dates ",
  "8664": "spl",
  "8665": "atory ",
  "8666": "system (",
  "8667": "nerv",
  "8668": "travels ",
  "8669": "1000 ",
  "8670": "\" in the ",
  "8671": "pe ",
  "8672": "on the surfac",
  "8673": "e S",
  "8674": "borders ",
  "8675": "Pakistan ",
  "8676": "th, and ",
  "8677": "theast",
  "8678": "August 202",
  "8679": "China and ",
  "8680": "people living in ",
  "8681": "a is the ",
  "8682": "ao",
  "8683": "has not ",
  "8684": "an's ",
  "8685": "the second-largest ",
  "8686": "ethnic group",
  "8687": ".\nBefore the ",
  "8688": "arist",
  "8689": ".\nAround ",
  "8690": "rural ",
  "8691": "south of the ",
  "8692": "Neander",
  "8693": "Neanderth",
  "8694": ",000 to ",
  "8695": "yan",
  "8696": "north of ",
  "8697": "th century and ",
  "8698": "enjoy",
  "8699": "e.\nIn the ",
  "8700": "capital and ",
  "8701": "\" were ",
  "8702": "or in the ",
  "8703": "mar ",
  "8704": "Mongol",
  "8705": "150",
  "8706": "capital city of ",
  "8707": ".\nBet",
  "8708": "disputed ",
  "8709": ".\nIn 17",
  "8710": "power and ",
  "8711": "united ",
  "8712": "Indians ",
  "8713": "gain",
  "8714": "joined the ",
  "8715": "as its ",
  "8716": "anti-",
  "8717": "Army ",
  "8718": "s.\nAfter ",
  "8719": "Civil War ",
  "8720": "Arab ",
  "8721": "amed ",
  "8722": "Trade ",
  "8723": "agon ",
  "8724": "outside ",
  "8725": "gone ",
  "8726": "built",
  "8727": "2014",
  "8728": "Union, ",
  "8729": "PLA",
  "8730": "a, and the ",
  "8731": ") is a country in ",
  "8732": "mix of ",
  "8733": "with an ",
  "8734": "1940",
  "8735": ".\nLe",
  "8736": "disappear",
  "8737": "restor",
  "8738": "i and ",
  "8739": "\"crim",
  "8740": "s.\nAr",
  "8741": "Sil",
  "8742": "Swit",
  "8743": "Switzer",
  "8744": ".\nAustria ",
  "8745": "nin",
  "8746": "document ",
  "8747": "tz",
  "8748": "Franz ",
  "8749": "led to ",
  "8750": "eus ",
  "8751": "\u00c3\u00a4",
  "8752": "World War I",
  "8753": "perpe",
  "8754": "corpor",
  "8755": "solv",
  "8756": "Treat",
  "8757": "how people ",
  "8758": "buri",
  "8759": "liber",
  "8760": "e.\nL",
  "8761": "university ",
  "8762": "museum",
  "8763": "ually, ",
  "8764": "study the ",
  "8765": "beginning of ",
  "8766": "life in ",
  "8767": "that were ",
  "8768": ".\nHistor",
  "8769": "historical ",
  "8770": ".\nIn many countries, ",
  "8771": "\n\nThe word ",
  "8772": "application ",
  "8773": "eukaryot",
  "8774": "most people ",
  "8775": "responsi",
  "8776": "nivor",
  "8777": "proti",
  "8778": "vary ",
  "8779": "adapt",
  "8780": "mammal ",
  "8781": "evolv",
  "8782": "velocity ",
  "8783": "therefor",
  "8784": "formula_1 ",
  "8785": "rules for ",
  "8786": "e.\nThese ",
  "8787": ".\nBlack ",
  "8788": "phrase \"",
  "8789": "footw",
  "8790": "sand",
  "8791": "bank",
  "8792": "credi",
  "8793": "that there are ",
  "8794": "though the ",
  "8795": "debt ",
  "8796": "parts of the world",
  "8797": "s\", ",
  "8798": "individual",
  "8799": "sati",
  "8800": "s.\nAlmost ",
  "8801": "always be ",
  "8802": "reakfast sausag",
  "8803": "breakfast sausag",
  "8804": "es, which ",
  "8805": "breakfast",
  "8806": "alter",
  "8807": "alternative ",
  "8808": "try ",
  "8809": "length",
  "8810": "icknes",
  "8811": "dium",
  "8812": "es include the ",
  "8813": "usually a ",
  "8814": ", and some ",
  "8815": "countries are ",
  "8816": "es:\n\n",
  "8817": "most populous ",
  "8818": "Olympic Gam",
  "8819": "Winter ",
  "8820": "rulers ",
  "8821": "Nanj",
  "8822": "name is ",
  "8823": "bottl",
  "8824": "many different kinds of ",
  "8825": "call this ",
  "8826": "it from ",
  "8827": "mustach",
  "8828": "beard",
  "8829": "fear",
  "8830": "class ",
  "8831": "victim",
  "8832": "men and women ",
  "8833": "where",
  "8834": "on.\nThe ",
  "8835": "use it ",
  "8836": "2003 ",
  "8837": "biology, ",
  "8838": "genetic",
  "8839": "ussel",
  "8840": "NATO",
  "8841": "the so-",
  "8842": "made up ",
  "8843": "di ",
  "8844": "area is ",
  "8845": "one is ",
  "8846": "older",
  "8847": "rough ",
  "8848": "Bo",
  "8849": ".\nThree ",
  "8850": "Du",
  "8851": "Pier",
  "8852": "CO",
  "8853": "imen",
  "8854": "screen",
  "8855": "ate, ",
  "8856": ", Gu",
  "8857": "Football ",
  "8858": "driver",
  "8859": "emor",
  "8860": "Brazil",
  "8861": "cou",
  "8862": "Spaniards ",
  "8863": "communist ",
  "8864": "president ",
  "8865": "larger than the ",
  "8866": "Uk",
  "8867": "forests ",
  "8868": "figure ",
  "8869": "ine in ",
  "8870": "s have been ",
  "8871": "aly",
  "8872": "react",
  "8873": "salt",
  "8874": "easil",
  "8875": "easily",
  "8876": "explod",
  "8877": "with another ",
  "8878": "it and ",
  "8879": "a L",
  "8880": "has to ",
  "8881": "smart",
  "8882": "defined ",
  "8883": "concept ",
  "8884": "clock",
  "8885": "a similar ",
  "8886": "hav",
  "8887": "Corpor",
  "8888": "remember",
  "8889": "Intel ",
  "8890": "replace ",
  "8891": ".\nIn 200",
  "8892": "that has a ",
  "8893": ".\nBoth ",
  "8894": ".\nYou ",
  "8895": "embedded ",
  "8896": "bank ",
  "8897": "Contin",
  "8898": "land is ",
  "8899": "orph",
  "8900": "deep ",
  "8901": "Russia ",
  "8902": "coldest ",
  "8903": "14 ",
  "8904": "challeng",
  "8905": "lass",
  "8906": "yellow ",
  "8907": "PRC",
  "8908": "inven",
  "8909": "eograph",
  "8910": "minority ",
  "8911": "philosophies ",
  "8912": "mig",
  "8913": "when it ",
  "8914": "Taiping ",
  "8915": "manufac",
  "8916": "vast ",
  "8917": "Pacific Ocean ",
  "8918": "communication ",
  "8919": "clas",
  "8920": "), and the ",
  "8921": "US$",
  "8922": "autumn ",
  "8923": "en to ",
  "8924": "sit ",
  "8925": "city in the ",
  "8926": "s.\nFor ",
  "8927": "them in ",
  "8928": "economics ",
  "8929": "s.\nThe word ",
  "8930": "ritual ",
  "8931": "tol",
  "8932": ", the first ",
  "8933": "nobl",
  "8934": "crus",
  "8935": "surrend",
  "8936": "knows ",
  "8937": "asked ",
  "8938": "20,000 ",
  "8939": "changed",
  "8940": "mall ",
  "8941": "at of ",
  "8942": "entrance ",
  "8943": "congreg",
  "8944": "may be a ",
  "8945": "facing ",
  "8946": "word for ",
  "8947": "closer ",
  "8948": "es are often ",
  "8949": "s.\nC",
  "8950": "law and ",
  "8951": "railway ",
  "8952": "Westmin",
  "8953": "sick",
  "8954": "cen",
  "8955": "eh",
  "8956": "lines ",
  "8957": "natural gas",
  "8958": "butter",
  "8959": "er\" ",
  "8960": "use to ",
  "8961": "chat ",
  "8962": "crimin",
  "8963": "illegal ",
  "8964": ".\nOrigin",
  "8965": "which the ",
  "8966": "ense ",
  "8967": "according to the ",
  "8968": "Diction",
  "8969": "levels of ",
  "8970": "Time Cube ",
  "8971": "for use ",
  "8972": "ations of the ",
  "8973": "differenti",
  "8974": "curve ",
  "8975": "actual ",
  "8976": "draw ",
  "8977": "16 ",
  "8978": "at different ",
  "8979": "change, ",
  "8980": "terms of ",
  "8981": "targ",
  "8982": "entertainment ",
  "8983": "criticiz",
  "8984": "comedy",
  "8985": "1960s, ",
  "8986": "tail ",
  "8987": ") in the ",
  "8988": "Philosoph",
  "8989": "Eukary",
  "8990": "equally ",
  "8991": "choose to ",
  "8992": "cheese ",
  "8993": "constitution",
  "8994": "Parliament",
  "8995": "prec",
  "8996": "two-",
  "8997": "diameter of ",
  "8998": "radius ",
  "8999": "proper noun",
  "9000": "nouns are ",
  "9001": "title ",
  "9002": "with no ",
  "9003": "Pow",
  "9004": ".\nIt is the largest ",
  "9005": "Fidel ",
  "9006": "music is ",
  "9007": "standard",
  "9008": "General S",
  "9009": "cig",
  "9010": "Stu",
  "9011": "body is ",
  "9012": "uch of the ",
  "9013": "place for ",
  "9014": "on the island",
  "9015": "harbor",
  "9016": "has a s",
  "9017": "ourists ",
  "9018": "poly",
  "9019": "a cube ",
  "9020": "dimension",
  "9021": "birthstone ",
  "9022": "Han",
  "9023": "Scandinavian ",
  "9024": "s.\nPeople who ",
  "9025": "versions ",
  "9026": "Wic",
  "9027": "spelled ",
  "9028": "dangerous ",
  "9029": "Euclide",
  "9030": "bottom of the ",
  "9031": "rivers and ",
  "9032": "decisions ",
  "9033": "occupi",
  "9034": "islands.\nThe ",
  "9035": "in most ",
  "9036": "wedish ",
  "9037": "ligi",
  "9038": "sport in ",
  "9039": ".\nFebr",
  "9040": "wif",
  "9041": "die ",
  "9042": "ties and ",
  "9043": "reasons ",
  "9044": "goodby",
  "9045": "psych",
  "9046": "\"to ",
  "9047": "leep",
  "9048": "Lin",
  "9049": "diesel-",
  "9050": "diesel-electric ",
  "9051": "engine ",
  "9052": "complex",
  "9053": "promot",
  "9054": "relationship ",
  "9055": "Arc",
  "9056": "Mediterranean ",
  "9057": "Ireland, ",
  "9058": "4\u00e2\u0080\u0093",
  "9059": "Wikipedi",
  "9060": "e\".\nThe ",
  "9061": "if it ",
  "9062": "encyclopedias",
  "9063": "are about ",
  "9064": "rocky ",
  "9065": "on its ",
  "9066": "hydrogen, ",
  "9067": "aer",
  "9068": "very different ",
  "9069": "5 billion ",
  "9070": "gold and ",
  "9071": "es in a ",
  "9072": ".\nMet",
  "9073": "shape ",
  "9074": "covered with ",
  "9075": "live, ",
  "9076": "es about ",
  "9077": "fuels ",
  "9078": "confirm",
  "9079": "s.\nEx",
  "9080": "philosophy of ",
  "9081": "E Prim",
  "9082": "verbs ",
  "9083": "resource ",
  "9084": "peace ",
  "9085": "Green ",
  "9086": "and in",
  "9087": "(such as ",
  "9088": "apol",
  "9089": "e, M",
  "9090": "write",
  "9091": "specifically ",
  "9092": "scor",
  "9093": "March",
  "9094": "August and ",
  "9095": "April and December ",
  "9096": "29, ",
  "9097": "guil",
  "9098": "Louis ",
  "9099": "speech ",
  "9100": "invasion of ",
  "9101": "pac",
  "9102": "cuisine ",
  "9103": "are a ",
  "9104": "Finland is ",
  "9105": "Tam",
  "9106": ".\nFinn",
  "9107": ")\n\n",
  "9108": "dictator ",
  "9109": "universities ",
  "9110": "botan",
  "9111": "structure ",
  "9112": "with its ",
  "9113": "rules about ",
  "9114": "etro",
  "9115": "Lawr",
  "9116": "Lawrence ",
  "9117": ".\nIf a ",
  "9118": "pathog",
  "9119": "a copy",
  "9120": "ed under the ",
  "9121": "God exist",
  "9122": "Sikh",
  "9123": "like to ",
  "9124": "theism",
  "9125": "infinity",
  "9126": ".\nPhilosoph",
  "9127": "others are ",
  "9128": "point of ",
  "9129": "wik",
  "9130": "es on the ",
  "9131": "irregular ",
  "9132": "the Solar Syst",
  "9133": "Andromeda Galax",
  "9134": "dominant ",
  "9135": "female ",
  "9136": "temporary ",
  "9137": "ublic ",
  "9138": "shel",
  "9139": "Honolulu ",
  "9140": "chain ",
  "9141": "Kah",
  "9142": "earl ",
  "9143": ".\nHon",
  "9144": "anthem ",
  "9145": "1790",
  "9146": "in all ",
  "9147": "astronomer ",
  "9148": "186",
  "9149": "chrom",
  "9150": "Italy is ",
  "9151": "diom",
  "9152": "inch ",
  "9153": "imperial pint ",
  "9154": "fastest ",
  "9155": "PP",
  "9156": "e.\nOther ",
  "9157": "as many as ",
  "9158": "Troph",
  "9159": "immunity ",
  "9160": "mammali",
  "9161": "mammalian ",
  "9162": "examin",
  "9163": "ultiplication ",
  "9164": ": The ",
  "9165": "Japan is ",
  "9166": "Honsh",
  "9167": "dam ",
  "9168": "Toky",
  "9169": "stock ",
  "9170": "Jupiter is ",
  "9171": "quarter ",
  "9172": "Telescop",
  "9173": "Jupiter and ",
  "9174": "orbit of ",
  "9175": "Gan",
  "9176": "Ganym",
  "9177": "Ganymed",
  "9178": "er 10 ",
  "9179": "nau",
  "9180": "nautical ",
  "9181": "Esper",
  "9182": "Esperan",
  "9183": "leis",
  "9184": "meteorit",
  "9185": "entrop",
  "9186": "Zamenhof ",
  "9187": "as Vegas",
  "9188": "of the Hawaiian ",
  "9189": "permission ",
  "9190": "a special ",
  "9191": "city, ",
  "9192": "London is ",
  "9193": "10 \u00c3\u0097 ",
  "9194": "gram ",
  "9195": "IP",
  "9196": "guitar",
  "9197": "music that was ",
  "9198": "Baroque ",
  "9199": "piano ",
  "9200": "\u00c2\u00a0\u00c2\u00b0F",
  "9201": ".\nMontreal ",
  "9202": "names ",
  "9203": "wheat ",
  "9204": "tible ",
  "9205": "Wik",
  "9206": "GE",
  "9207": "OS",
  "9208": "mosques are ",
  "9209": "minaret",
  "9210": "Mosque in ",
  "9211": "imam",
  "9212": "transcendental ",
  "9213": "Rod",
  "9214": "Rodrig",
  "9215": "family name ",
  "9216": "Ono ",
  "9217": "N\u00c4\u0093",
  "9218": "N\u00c4\u0093n\u00c4\u0093",
  "9219": ".\nNaur",
  "9220": "Nauru",
  "9221": "\"Voyager 2\" ",
  "9222": "Lower ",
  "9223": "the biggest ",
  "9224": "Manhattan, ",
  "9225": "Long ",
  "9226": "New York City's ",
  "9227": "Julian and ",
  "9228": "Julian and Gregorian calendar",
  "9229": "always begins on the same day of the week as ",
  "9230": "January in leap year",
  "9231": "finishes on the same day of the week as July ",
  "9232": "June of the following year",
  "9233": "month in the Southern Hemispher",
  "9234": "month in the Southern Hemisphere.\nIn ",
  "9235": "spring",
  "9236": "Sund",
  "9237": "Orthod",
  "9238": "Orthodox ",
  "9239": "Central and ",
  "9240": ".) is the ",
  "9241": ".\nAugust ",
  "9242": "eighth ",
  "9243": "\u00c2\u00a0BC",
  "9244": "is named ",
  "9245": "e.\nN",
  "9246": "other month ",
  "9247": "13 weeks (",
  "9248": "13 weeks (91 ",
  "9249": "13 weeks (91 days) apart",
  "9250": "finishes on the same day of the week as May ",
  "9251": "an object",
  "9252": "it.\nSome people ",
  "9253": "lax",
  "9254": "as well as the ",
  "9255": "appreci",
  "9256": "\" means \"",
  "9257": "wish ",
  "9258": "artist ",
  "9259": "audience ",
  "9260": "connect ",
  "9261": "may become ",
  "9262": "Tibet",
  "9263": "ruling ",
  "9264": "paint ",
  "9265": "invented ",
  "9266": "in the Middle Ag",
  "9267": "societies, ",
  "9268": "belongs to the ",
  "9269": "it.\nThey ",
  "9270": "think that the ",
  "9271": "ected by ",
  "9272": "1) ",
  "9273": "function\n\n",
  "9274": "nostic ",
  "9275": "is the first ",
  "9276": "of the English ",
  "9277": "\u00ce\u00b1",
  "9278": "Phoen",
  "9279": "letters ",
  "9280": "seg",
  "9281": "es, etc",
  "9282": "mixture of ",
  "9283": ".\nIt has an ",
  "9284": "e.\nIt has ",
  "9285": "pressure",
  "9286": "atmosphere is ",
  "9287": "78 ",
  "9288": "es.\nAn",
  "9289": "es), ",
  "9290": "weather",
  "9291": "height",
  "9292": "allows ",
  "9293": "fly",
  "9294": "s.\nSince ",
  "9295": "isi",
  "9296": "and F",
  "9297": "significant ",
  "9298": "communities ",
  "9299": "not\" ",
  "9300": "some of these ",
  "9301": "s that were ",
  "9302": ", where ",
  "9303": "provinces and ",
  "9304": "re, ",
  "9305": "family of ",
  "9306": "merch",
  "9307": "Scot",
  "9308": "Micha",
  "9309": "Ro",
  "9310": "going to ",
  "9311": "\u00e2\u0080\u009d ",
  "9312": "Edward ",
  "9313": "School",
  "9314": "y B",
  "9315": "rd ",
  "9316": "greatest ",
  "9317": "ley ",
  "9318": "ma ",
  "9319": "statute ",
  "9320": "computer program",
  "9321": "to say ",
  "9322": "talking ",
  "9323": "Cy",
  "9324": "return",
  "9325": "its first ",
  "9326": ".\nAt that time, ",
  "9327": "illegal",
  "9328": "jail",
  "9329": "on was ",
  "9330": "gran",
  "9331": "which was ",
  "9332": "pected ",
  "9333": "believed to be ",
  "9334": "2009",
  "9335": "teen",
  "9336": "\"Y",
  "9337": "Little ",
  "9338": "album",
  "9339": "best-",
  "9340": "selling ",
  "9341": "became an ",
  "9342": "22, ",
  "9343": "very popular ",
  "9344": "worldwid",
  "9345": ".\nIt was first ",
  "9346": "tub",
  "9347": "\"; ",
  "9348": "it (",
  "9349": "ing is ",
  "9350": "keeping ",
  "9351": "no one ",
  "9352": "farming ",
  "9353": "Revolution ",
  "9354": "Mesop",
  "9355": "Mesopotam",
  "9356": "horses, ",
  "9357": "sheep",
  "9358": "Columb",
  "9359": "soil ",
  "9360": "ter-",
  "9361": "farmer",
  "9362": "provides ",
  "9363": "nutrition ",
  "9364": "the surrounding ",
  "9365": "larger",
  "9366": "tiliz",
  "9367": "salt ",
  "9368": "education",
  "9369": "engineering",
  "9370": "example is ",
  "9371": ", usually ",
  "9372": "parts of the world, ",
  "9373": "choice ",
  "9374": "ture is ",
  "9375": "this reason, ",
  "9376": ".\nCommon ",
  "9377": "ality, ",
  "9378": ".\nThere are some ",
  "9379": "grass ",
  "9380": "acea",
  "9381": "numbers.\nThe ",
  "9382": "people learn ",
  "9383": "ics, ",
  "9384": "account",
  "9385": "doctor",
  "9386": "nur",
  "9387": "perform ",
  "9388": "quickly, ",
  "9389": "extension ",
  "9390": "represented by ",
  "9391": "operation ",
  "9392": "concepts ",
  "9393": "vector",
  "9394": "e, meaning ",
  "9395": "order of the ",
  "9396": "concer",
  "9397": "while the ",
  "9398": "comb",
  "9399": "combine ",
  "9400": "6 and ",
  "9401": "Sally's ",
  "9402": "Tom",
  "9403": "distance from ",
  "9404": "house, ",
  "9405": "order of ",
  "9406": "a\n\n",
  "9407": "sovereign ",
  "9408": "country in the world ",
  "9409": "Australas",
  "9410": "s.\nAustrali",
  "9411": "islands are ",
  "9412": "5% of ",
  "9413": "mining ",
  "9414": "produces ",
  "9415": "kang",
  "9416": "monot",
  "9417": "idn",
  "9418": "Tasmania, ",
  "9419": "aroo",
  "9420": "1 January ",
  "9421": "parliamentary ",
  "9422": "constitutional monarchy ",
  "9423": "King of ",
  "9424": "Head of ",
  "9425": "-General ",
  "9426": "states, ",
  "9427": "mainland ",
  "9428": "New South Wales, ",
  "9429": "territories ",
  "9430": "Territor",
  "9431": "a city",
  "9432": ".\nOnly the ",
  "9433": "(not ",
  "9434": "rainf",
  "9435": "flood",
  "9436": "threaten",
  "9437": "ipped ",
  "9438": "40% of the ",
  "9439": "res ",
  "9440": "8, the ",
  "9441": "sorts of ",
  "9442": "management ",
  "9443": "burn ",
  "9444": "plain ",
  "9445": "hunting",
  "9446": "belonged to the ",
  "9447": "Indon",
  "9448": "Indones",
  "9449": "HM",
  "9450": "s and D",
  "9451": "Land ",
  "9452": "spot",
  "9453": "full of ",
  "9454": "ecting ",
  "9455": ".\nBut the ",
  "9456": "England and ",
  "9457": "cause a ",
  "9458": "laws were ",
  "9459": "full",
  "9460": "chain",
  "9461": "ines, ",
  "9462": "for two ",
  "9463": "years",
  "9464": "Bot",
  "9465": "unknown ",
  "9466": "found that ",
  "9467": "ed into a ",
  "9468": "ort ",
  "9469": "many small ",
  "9470": "name of ",
  "9471": "were very ",
  "9472": "difficult",
  "9473": "about what ",
  "9474": "obody ",
  "9475": "s, a ",
  "9476": "inding ",
  "9477": "standing ",
  "9478": "ements ",
  "9479": "sing ",
  "9480": "brought to ",
  "9481": "lam",
  "9482": "sending ",
  "9483": "farming",
  "9484": "\u00c2\u00a0km (",
  "9485": "miles) ",
  "9486": "itch",
  "9487": "successful ",
  "9488": "mapp",
  "9489": "maps ",
  "9490": "what is now ",
  "9491": "demand ",
  "9492": "counc",
  "9493": "could vot",
  "9494": "Legisl",
  "9495": "in 184",
  "9496": "government was ",
  "9497": "one country ",
  "9498": "British Empire",
  "9499": "sion of the ",
  "9500": "it would ",
  "9501": "Turkey ",
  "9502": "enz",
  "9503": "in 197",
  "9504": "happ",
  "9505": "1960s ",
  "9506": "Viet",
  "9507": "Malay",
  "9508": "wars ",
  "9509": "dictatorship",
  "9510": "Tim",
  "9511": "3, the ",
  "9512": ".\nIn the 1970",
  "9513": "reces",
  "9514": "it still ",
  "9515": "refug",
  "9516": "6.",
  "9517": "ony ",
  "9518": "Prime Minister",
  "9519": "live ther",
  "9520": "achiev",
  "9521": "lie ",
  "9522": "Jo",
  "9523": "k-",
  "9524": "na ",
  "9525": "Ever",
  "9526": "Financial ",
  "9527": "\"K",
  "9528": "is an important ",
  "9529": "part in ",
  "9530": "team",
  "9531": "ocke",
  "9532": "on, and ",
  "9533": "Games ",
  "9534": "2000 ",
  "9535": "inners ",
  "9536": "tenn",
  "9537": "ches ",
  "9538": "One ",
  "9539": ".\nCor",
  "9540": "grand ",
  "9541": "football",
  "9542": "ague",
  "9543": "League ",
  "9544": "(soccer",
  "9545": "basket",
  "9546": "Champion",
  "9547": "ald ",
  "9548": "festival",
  "9549": ".\nNow ",
  "9550": "focus on ",
  "9551": "on Earth, ",
  "9552": "short",
  "9553": "essential ",
  "9554": "dialec",
  "9555": "spoken",
  "9556": "Bost",
  "9557": "rho",
  "9558": "most other ",
  "9559": "onian ",
  "9560": "ing of the ",
  "9561": "semi-",
  "9562": "( ",
  "9563": "cof",
  "9564": "coffe",
  "9565": ".\nSou",
  "9566": "heard ",
  "9567": "quac",
  "9568": "quacul",
  "9569": "fish, ",
  "9570": "alga",
  "9571": "plies ",
  "9572": "thousands of year",
  "9573": "Roman Empire ",
  "9574": "methods ",
  "9575": "very little ",
  "9576": "abbreviation ",
  "9577": "abbreviations ",
  "9578": "uses the ",
  "9579": "mark ",
  "9580": "ym ",
  "9581": "o D",
  "9582": "Bus",
  "9583": "Old Testam",
  "9584": "New Testament, ",
  "9585": "eval ",
  "9586": "obe",
  "9587": "ream",
  "9588": "Jesus",
  "9589": "makes a ",
  "9590": "sees ",
  "9591": "gives the ",
  "9592": "Command",
  "9593": "statu",
  "9594": "to be a ",
  "9595": "ala",
  "9596": "hit",
  "9597": "Angel",
  "9598": "fighting ",
  "9599": "a war ",
  "9600": "ariah ",
  "9601": "Israel ",
  "9602": "Jer",
  "9603": "census",
  "9604": "created",
  "9605": "the sound ",
  "9606": "reve",
  "9607": "creatur",
  "9608": "flew ",
  "9609": ".\nThere are four ",
  "9610": "tasks ",
  "9611": "rejec",
  "9612": ".\nInstead, ",
  "9613": "l, ",
  "9614": "much",
  "9615": "speaks ",
  "9616": "creation of ",
  "9617": "decision ",
  "9618": "opinion ",
  "9619": "humans and ",
  "9620": "lose their ",
  "9621": "nic",
  "9622": "jus",
  "9623": "that people ",
  "9624": "es.\nThey are ",
  "9625": "believed to ",
  "9626": "work, and ",
  "9627": "ted by ",
  "9628": "loos",
  "9629": ".\nOn the other hand",
  "9630": "Shakespeare",
  "9631": "poet ",
  "9632": "wards, ",
  "9633": ".\nSe",
  "9634": "hominem",
  "9635": "often used in ",
  "9636": ", they are ",
  "9637": ".\nWhen a ",
  "9638": ".\nFor example, when ",
  "9639": "doub",
  "9640": "logical ",
  "9641": "fact that ",
  "9642": "abor",
  "9643": "Christopher ",
  "9644": "s.\nToday, ",
  "9645": "came to the ",
  "9646": "forced to ",
  "9647": "in Canad",
  "9648": "others have ",
  "9649": "rim",
  "9650": "Siberia ",
  "9651": "Bering",
  "9652": "lish ",
  "9653": "reser",
  "9654": "Russia",
  "9655": ".\nNative Americans ",
  "9656": "ica ",
  "9657": "illa",
  "9658": "teaching ",
  "9659": "identifi",
  "9660": ".\nPer",
  "9661": "zo",
  "9662": "oci",
  "9663": "have become ",
  "9664": "a man ",
  "9665": "president of ",
  "9666": "s.\nIts ",
  "9667": "akh",
  "9668": "stan, ",
  "9669": "Uz",
  "9670": "Uzbe",
  "9671": "onto ",
  "9672": "stock",
  "9673": ").\nThere are ",
  "9674": "2013 ",
  "9675": "\"Mal",
  "9676": "Taj",
  "9677": "iang",
  "9678": "dwarf ",
  "9679": "s.\nThe first ",
  "9680": "orch",
  "9681": "goddess ",
  "9682": "on) ",
  "9683": "suggests that ",
  "9684": "develope",
  "9685": "developed",
  "9686": "cooked",
  "9687": "removed ",
  "9688": "us\"",
  "9689": "used in many ",
  "9690": "es are also ",
  "9691": "a little ",
  "9692": "alco",
  "9693": "alcohol",
  "9694": "wall ",
  "9695": "ated the ",
  "9696": "a different ",
  "9697": "means that the ",
  "9698": ", or a ",
  "9699": "specially ",
  "9700": "es.\nOne ",
  "9701": "Fru",
  "9702": "flavor ",
  "9703": "popular in ",
  "9704": "6,000 ",
  "9705": "rarely ",
  "9706": "teach ",
  "9707": "edic",
  "9708": "in the United States ",
  "9709": "square mil",
  "9710": "spiritual ",
  "9711": "Judaism, ",
  "9712": "aller ",
  "9713": "itan",
  "9714": "Bah\u00c3\u00a1",
  "9715": "Bah\u00c3\u00a1'",
  "9716": "Bah\u00c3\u00a1'\u00c3\u00ad ",
  "9717": "there is only one ",
  "9718": "God and ",
  "9719": "Abrahamic religions ",
  "9720": "jab",
  "9721": "is called an ",
  "9722": "is: ",
  "9723": "than",
  "9724": "programming ",
  "9725": "ians and ",
  "9726": "ometers ",
  "9727": ".\nHowever ",
  "9728": "His",
  "9729": "ian, ",
  "9730": "translated ",
  "9731": "name, ",
  "9732": ", was ",
  "9733": "formula_23",
  "9734": "write the ",
  "9735": ": formula_4",
  "9736": "remove ",
  "9737": "1)",
  "9738": ".\nV",
  "9739": "Eul",
  "9740": "constant",
  "9741": "are the most ",
  "9742": "picture ",
  "9743": "ordin",
[...]
